module {
  func.func @main(%arg0: tensor<1x20x!FHE.esint<9>>) -> tensor<1x3x!FHE.eint<3>> {
    %c2_i3 = arith.constant 2 : i3
    %cst = arith.constant dense<"0x0000000000000000010000000000000004000000000000000900000000000000100000000000000019000000000000002400000000000000310000000000000040000000000000005100000000000000640000000000000079000000000000009000000000000000A900000000000000C400000000000000E10000000000000000010000000000002101000000000000440100000000000069010000000000009001000000000000B901000000000000E401000000000000110200000000000040020000000000007102000000000000A402000000000000D902000000000000100300000000000049030000000000008403000000000000C103000000000000000400000000000041040000000000008404000000000000C90400000000000010050000000000005905000000000000A405000000000000F10500000000000040060000000000009106000000000000E40600000000000039070000000000009007000000000000E9070000000000004408000000000000A10800000000000000090000000000006109000000000000C409000000000000290A000000000000900A000000000000F90A000000000000640B000000000000D10B000000000000400C000000000000B10C000000000000240D000000000000990D000000000000100E000000000000890E000000000000040F000000000000810F0000000000000010000000000000811000000000000004110000000000008911000000000000101200000000000099120000000000002413000000000000B1130000000000004014000000000000D1140000000000006415000000000000F91500000000000090160000000000002917000000000000C41700000000000061180000000000000019000000000000A119000000000000441A000000000000E91A000000000000901B000000000000391C000000000000E41C000000000000911D000000000000401E000000000000F11E000000000000A41F00000000000059200000000000001021000000000000C921000000000000842200000000000041230000000000000024000000000000C124000000000000842500000000000049260000000000001027000000000000D927000000000000A4280000000000007129000000000000402A000000000000112B000000000000E42B000000000000B92C000000000000902D000000000000692E000000000000442F00000000000021300000000000000031000000000000E131000000000000C432000000000000A933000000000000903400000000000079350000000000006436000000000000513700000000000040380000000000003139000000000000243A000000000000193B000000000000103C000000000000093D000000000000043E000000000000013F0000000000000040000000000000014100000000000004420000000000000943000000000000104400000000000019450000000000002446000000000000314700000000000040480000000000005149000000000000644A000000000000794B000000000000904C000000000000A94D000000000000C44E000000000000E14F00000000000000510000000000002152000000000000445300000000000069540000000000009055000000000000B956000000000000E4570000000000001159000000000000405A000000000000715B000000000000A45C000000000000D95D000000000000105F00000000000049600000000000008461000000000000C162000000000000006400000000000041650000000000008466000000000000C9670000000000001069000000000000596A000000000000A46B000000000000F16C000000000000406E000000000000916F000000000000E47000000000000039720000000000009073000000000000E9740000000000004476000000000000A1770000000000000079000000000000617A000000000000C47B000000000000297D000000000000907E000000000000F97F0000000000006481000000000000D1820000000000004084000000000000B18500000000000024870000000000009988000000000000108A000000000000898B000000000000048D000000000000818E0000000000000090000000000000819100000000000004930000000000008994000000000000109600000000000099970000000000002499000000000000B19A000000000000409C000000000000D19D000000000000649F000000000000F9A000000000000090A200000000000029A4000000000000C4A500000000000061A700000000000000A9000000000000A1AA00000000000044AC000000000000E9AD00000000000090AF00000000000039B1000000000000E4B200000000000091B400000000000040B6000000000000F1B7000000000000A4B900000000000059BB00000000000010BD000000000000C9BE00000000000084C000000000000041C200000000000000C4000000000000C1C500000000000084C700000000000049C900000000000010CB000000000000D9CC000000000000A4CE00000000000071D000000000000040D200000000000011D4000000000000E4D5000000000000B9D700000000000090D900000000000069DB00000000000044DD00000000000021DF00000000000000E1000000000000E1E2000000000000C4E4000000000000A9E600000000000090E800000000000079EA00000000000064EC00000000000051EE00000000000040F000000000000031F200000000000024F400000000000019F600000000000010F800000000000009FA00000000000004FC00000000000001FE000000000000000001000000000001FE00000000000004FC00000000000009FA00000000000010F800000000000019F600000000000024F400000000000031F200000000000040F000000000000051EE00000000000064EC00000000000079EA00000000000090E8000000000000A9E6000000000000C4E4000000000000E1E200000000000000E100000000000021DF00000000000044DD00000000000069DB00000000000090D9000000000000B9D7000000000000E4D500000000000011D400000000000040D200000000000071D0000000000000A4CE000000000000D9CC00000000000010CB00000000000049C900000000000084C7000000000000C1C500000000000000C400000000000041C200000000000084C0000000000000C9BE00000000000010BD00000000000059BB000000000000A4B9000000000000F1B700000000000040B600000000000091B4000000000000E4B200000000000039B100000000000090AF000000000000E9AD00000000000044AC000000000000A1AA00000000000000A900000000000061A7000000000000C4A500000000000029A400000000000090A2000000000000F9A0000000000000649F000000000000D19D000000000000409C000000000000B19A0000000000002499000000000000999700000000000010960000000000008994000000000000049300000000000081910000000000000090000000000000818E000000000000048D000000000000898B000000000000108A00000000000099880000000000002487000000000000B1850000000000004084000000000000D1820000000000006481000000000000F97F000000000000907E000000000000297D000000000000C47B000000000000617A0000000000000079000000000000A1770000000000004476000000000000E97400000000000090730000000000003972000000000000E470000000000000916F000000000000406E000000000000F16C000000000000A46B000000000000596A0000000000001069000000000000C967000000000000846600000000000041650000000000000064000000000000C16200000000000084610000000000004960000000000000105F000000000000D95D000000000000A45C000000000000715B000000000000405A0000000000001159000000000000E457000000000000B95600000000000090550000000000006954000000000000445300000000000021520000000000000051000000000000E14F000000000000C44E000000000000A94D000000000000904C000000000000794B000000000000644A0000000000005149000000000000404800000000000031470000000000002446000000000000194500000000000010440000000000000943000000000000044200000000000001410000000000000040000000000000013F000000000000043E000000000000093D000000000000103C000000000000193B000000000000243A000000000000313900000000000040380000000000005137000000000000643600000000000079350000000000009034000000000000A933000000000000C432000000000000E13100000000000000310000000000002130000000000000442F000000000000692E000000000000902D000000000000B92C000000000000E42B000000000000112B000000000000402A0000000000007129000000000000A428000000000000D927000000000000102700000000000049260000000000008425000000000000C124000000000000002400000000000041230000000000008422000000000000C92100000000000010210000000000005920000000000000A41F000000000000F11E000000000000401E000000000000911D000000000000E41C000000000000391C000000000000901B000000000000E91A000000000000441A000000000000A11900000000000000190000000000006118000000000000C41700000000000029170000000000009016000000000000F9150000000000006415000000000000D1140000000000004014000000000000B1130000000000002413000000000000991200000000000010120000000000008911000000000000041100000000000081100000000000000010000000000000810F000000000000040F000000000000890E000000000000100E000000000000990D000000000000240D000000000000B10C000000000000400C000000000000D10B000000000000640B000000000000F90A000000000000900A000000000000290A000000000000C40900000000000061090000000000000009000000000000A1080000000000004408000000000000E90700000000000090070000000000003907000000000000E40600000000000091060000000000004006000000000000F105000000000000A40500000000000059050000000000001005000000000000C904000000000000840400000000000041040000000000000004000000000000C103000000000000840300000000000049030000000000001003000000000000D902000000000000A402000000000000710200000000000040020000000000001102000000000000E401000000000000B90100000000000090010000000000006901000000000000440100000000000021010000000000000001000000000000E100000000000000C400000000000000A900000000000000900000000000000079000000000000006400000000000000510000000000000040000000000000003100000000000000240000000000000019000000000000001000000000000000090000000000000004000000000000000100000000000000"> : tensor<512xi64>
    %0 = "FHELinalg.apply_lookup_table"(%arg0, %cst) : (tensor<1x20x!FHE.esint<9>>, tensor<512xi64>) -> tensor<1x20x!FHE.eint<9>>
    %1 = "FHELinalg.sum"(%0) {axes = [1], keep_dims = true} : (tensor<1x20x!FHE.eint<9>>) -> tensor<1x1x!FHE.eint<9>>
    %c2_i10 = arith.constant 2 : i10
    %from_elements = tensor.from_elements %c2_i10 : tensor<1xi10>
    %2 = "FHELinalg.mul_eint_int"(%arg0, %from_elements) : (tensor<1x20x!FHE.esint<9>>, tensor<1xi10>) -> tensor<1x20x!FHE.esint<9>>
    %cst_0 = arith.constant dense<"0x0100FF03FF03FF03FF030000FF03FF03FF03FE03FE03FE03FF03FF03FD03FF03FF03FD03000000000000FF03FF03FF03FF03FF030100FF03FD03FF03FE030200FE03FE0300000000FF03FE030100FD03FE03FD03FE03FE03FE030100FF0301000000FD03FD030000FE03FE030000FF030000FE03FD03FF03FE03FE03FE03FE03FF03FE030100FE0301000000FF0300000000FF03FE03FF03FD0300000000FE0300000000FF030000FF03FE0301000000FE030000FF030000FE03FD030000FE03FF030000FF03FF0300000000FE03FE030000FE03FE030000FF03FF030100FF03FF0300000000FE0301000000FC03FF03FE030000FE03FF030000FF03000000000000FF03FF03FF03FD03FE03FF030000FF03FF03FF03FE03FF03FF03FE03FE030000FF03FF03FF03FE0300000000FE030100FC030000FE030100FF03FF03FF030000FF03FF030100FF030000FF03FE03FE03FF0300000100FE03FF030100FE03FF030000FF03FF03FE03FF030000FE030100FF030000FC030100FF0301000000FE03FC030000FE03FF03FD030000FE03FF030000FF0301000000FF030100FF03FD03FF03FF03FE03FF03FC03FE03FE03FD03FE030000FF03FE03FE03FF03FC030000FE030000FF0300000100FF03FE030000FF030100FE03FD03FE03FF03FE03FE03FD0300000000FE03FE03FF03FE030100FF03FF03FE03FE03FE03FF03FD03FF0301000000FE03FE03FE030000FE03FE030000FE03FE03FF030100FF03FF030000FF03FF03FF030000FE0300000000FE03FF03FD03FE03FE030000FF03FF03FF0301000100FF030000FE0300000000FF03FE03FF030100FE03FF030000FE03FD030000FE03FF030000FF03FE0301000100FF03FF030100FF03FF03000001000000FF03FE03FE030100FE030000000001000000FF03FE03FF03FE03FF03FE03FF030100000000000000FD03FF03FD030100FF030000FF0300000100FF03FF03FF03FC03FF03FF03FE03FF03FF03FD03FF030000FF030000FF03FF03FF03FF030100FF030100FF030000FE03FF030000FF03FE03FF03FF030000FE030000FE03FE03FF030100FF030100FF030000FE03FF03FD03FF0300000000FF030000FF03FE03FF03FF03FF03FF03FF0300000000FF03FF03FE0301000000FF03FF03FF03FE03FE03FE030100FE03FF03FF03FC03FE030000FD030000FF03FE03FE030000FF030000FF03FE03FF0301000000FF03000000000000FE03FF03FF03FD030000FF03FC03FC03FE03FE0300000000FD03010003000000000000000100FC03FE030000FE03FE03FE03FE03FF030200FE03FE03FD0301000000FE030100FF030000FE030000FF03FF03FF03FE03FF030000FD03FE030000FF030000FF030000FF03FD030000FE03FF03FF03FE03FE03FF03FF03FC03FD030000FD03FF03FF03FC0300000000FE03FE0300000000FD03010000000100FF0300000000FD03FF03FD03FD0301000100FE030000FF03FF03FF03FE0300000100FF03FF0300000000FF03FF03FF03FE03FE03FE03FE03FE03FD0300000000FE03FC03FE03FE03FF03FE03FE0300000000FF030000FE03FE030000FE03FD03FF03FF030100FF030100FD03FD03FF030000FF03FE03FD0300000000FE03FE03FF03FD03FD03FF03FF030000FE03FE03FE03FF03FF03FE0300000000"> : tensor<20x30xi10>
    %3 = "FHELinalg.matmul_eint_int"(%2, %cst_0) : (tensor<1x20x!FHE.esint<9>>, tensor<20x30xi10>) -> tensor<1x30x!FHE.esint<9>>
    %4 = "FHELinalg.to_signed"(%1) : (tensor<1x1x!FHE.eint<9>>) -> tensor<1x1x!FHE.esint<9>>
    %5 = "FHELinalg.sub_eint"(%4, %3) : (tensor<1x1x!FHE.esint<9>>, tensor<1x30x!FHE.esint<9>>) -> tensor<1x30x!FHE.esint<9>>
    %cst_1 = arith.constant dense<[[57, 59, 29, 92, 35, 55, 45, 56, 31, 36, 41, 57, 58, 75, 37, 65, 42, 60, 36, 42, 34, 32, 33, 65, 23, 50, 60, 30, 78, 49]]> : tensor<1x30xi10>
    %6 = "FHELinalg.to_unsigned"(%5) : (tensor<1x30x!FHE.esint<9>>) -> tensor<1x30x!FHE.eint<9>>
    %7 = "FHELinalg.add_eint_int"(%6, %cst_1) : (tensor<1x30x!FHE.eint<9>>, tensor<1x30xi10>) -> tensor<1x30x!FHE.eint<9>>
    %c4_i10 = arith.constant 4 : i10
    %from_elements_2 = tensor.from_elements %c4_i10 : tensor<1xi10>
    %8 = "FHELinalg.mul_eint_int"(%7, %from_elements_2) : (tensor<1x30x!FHE.eint<9>>, tensor<1xi10>) -> tensor<1x30x!FHE.eint<9>>
    %9 = "FHELinalg.round"(%8) : (tensor<1x30x!FHE.eint<9>>) -> tensor<1x30x!FHE.eint<5>>
    %10 = "FHE.zero_tensor"() : () -> tensor<30x!FHE.eint<3>>
    %cst_3 = arith.constant dense<[0, 0, 0, 0, 1, 0, 1, 1, 1, 1, 1, 1, 0, 0, 1, 0, 1, 0, 1, 0, 1, 0, 0, 0, 1, 1, 0, 1, 0, 1]> : tensor<30xi4>
    %11 = "FHELinalg.add_eint_int"(%10, %cst_3) : (tensor<30x!FHE.eint<3>>, tensor<30xi4>) -> tensor<30x!FHE.eint<3>>
    %c0 = arith.constant 0 : index
    %extracted = tensor.extract %11[%c0] : tensor<30x!FHE.eint<3>>
    %c1 = arith.constant 1 : index
    %extracted_4 = tensor.extract %11[%c1] : tensor<30x!FHE.eint<3>>
    %c2 = arith.constant 2 : index
    %extracted_5 = tensor.extract %11[%c2] : tensor<30x!FHE.eint<3>>
    %c3 = arith.constant 3 : index
    %extracted_6 = tensor.extract %11[%c3] : tensor<30x!FHE.eint<3>>
    %c4 = arith.constant 4 : index
    %extracted_7 = tensor.extract %11[%c4] : tensor<30x!FHE.eint<3>>
    %c5 = arith.constant 5 : index
    %extracted_8 = tensor.extract %11[%c5] : tensor<30x!FHE.eint<3>>
    %c6 = arith.constant 6 : index
    %extracted_9 = tensor.extract %11[%c6] : tensor<30x!FHE.eint<3>>
    %c7 = arith.constant 7 : index
    %extracted_10 = tensor.extract %11[%c7] : tensor<30x!FHE.eint<3>>
    %c8 = arith.constant 8 : index
    %extracted_11 = tensor.extract %11[%c8] : tensor<30x!FHE.eint<3>>
    %c9 = arith.constant 9 : index
    %extracted_12 = tensor.extract %11[%c9] : tensor<30x!FHE.eint<3>>
    %c10 = arith.constant 10 : index
    %extracted_13 = tensor.extract %11[%c10] : tensor<30x!FHE.eint<3>>
    %c11 = arith.constant 11 : index
    %extracted_14 = tensor.extract %11[%c11] : tensor<30x!FHE.eint<3>>
    %c12 = arith.constant 12 : index
    %extracted_15 = tensor.extract %11[%c12] : tensor<30x!FHE.eint<3>>
    %c13 = arith.constant 13 : index
    %extracted_16 = tensor.extract %11[%c13] : tensor<30x!FHE.eint<3>>
    %from_elements_17 = tensor.from_elements %extracted, %extracted_4, %extracted_5, %extracted_6, %extracted_7, %extracted_8, %extracted_9, %extracted_10, %extracted_11, %extracted_12, %extracted_13, %extracted_14, %extracted_15, %extracted_16 : tensor<14x!FHE.eint<3>>
    %c16 = arith.constant 16 : index
    %extracted_18 = tensor.extract %11[%c16] : tensor<30x!FHE.eint<3>>
    %c17 = arith.constant 17 : index
    %extracted_19 = tensor.extract %11[%c17] : tensor<30x!FHE.eint<3>>
    %c18 = arith.constant 18 : index
    %extracted_20 = tensor.extract %11[%c18] : tensor<30x!FHE.eint<3>>
    %c19 = arith.constant 19 : index
    %extracted_21 = tensor.extract %11[%c19] : tensor<30x!FHE.eint<3>>
    %c20 = arith.constant 20 : index
    %extracted_22 = tensor.extract %11[%c20] : tensor<30x!FHE.eint<3>>
    %c21 = arith.constant 21 : index
    %extracted_23 = tensor.extract %11[%c21] : tensor<30x!FHE.eint<3>>
    %c22 = arith.constant 22 : index
    %extracted_24 = tensor.extract %11[%c22] : tensor<30x!FHE.eint<3>>
    %c23 = arith.constant 23 : index
    %extracted_25 = tensor.extract %11[%c23] : tensor<30x!FHE.eint<3>>
    %c24 = arith.constant 24 : index
    %extracted_26 = tensor.extract %11[%c24] : tensor<30x!FHE.eint<3>>
    %c25 = arith.constant 25 : index
    %extracted_27 = tensor.extract %11[%c25] : tensor<30x!FHE.eint<3>>
    %c26 = arith.constant 26 : index
    %extracted_28 = tensor.extract %11[%c26] : tensor<30x!FHE.eint<3>>
    %c27 = arith.constant 27 : index
    %extracted_29 = tensor.extract %11[%c27] : tensor<30x!FHE.eint<3>>
    %c28 = arith.constant 28 : index
    %extracted_30 = tensor.extract %11[%c28] : tensor<30x!FHE.eint<3>>
    %c29 = arith.constant 29 : index
    %extracted_31 = tensor.extract %11[%c29] : tensor<30x!FHE.eint<3>>
    %from_elements_32 = tensor.from_elements %extracted_18, %extracted_19, %extracted_20, %extracted_21, %extracted_22, %extracted_23, %extracted_24, %extracted_25, %extracted_26, %extracted_27, %extracted_28, %extracted_29, %extracted_30, %extracted_31 : tensor<14x!FHE.eint<3>>
    %c0_i2 = arith.constant 0 : i2
    %12 = "FHELinalg.to_signed"(%from_elements_32) : (tensor<14x!FHE.eint<3>>) -> tensor<14x!FHE.esint<3>>
    %13 = "FHELinalg.to_signed"(%from_elements_17) : (tensor<14x!FHE.eint<3>>) -> tensor<14x!FHE.esint<3>>
    %14 = "FHELinalg.sub_eint"(%12, %13) : (tensor<14x!FHE.esint<3>>, tensor<14x!FHE.esint<3>>) -> tensor<14x!FHE.esint<3>>
    %15 = "FHELinalg.add_eint"(%from_elements_17, %from_elements_32) : (tensor<14x!FHE.eint<3>>, tensor<14x!FHE.eint<3>>) -> tensor<14x!FHE.eint<3>>
    %cst_33 = arith.constant dense<[0, 4, 8, 12, 16, 20, 24, 28, 32, 36, 40, 44, 48, 52, 56, 60, 64, 68, 72, 76, 80, 84, 88, 92, 96, 100, 104, 108, 112, 116, 120, 124]> : tensor<32xi64>
    %16 = "FHELinalg.apply_lookup_table"(%9, %cst_33) : (tensor<1x30x!FHE.eint<5>>, tensor<32xi64>) -> tensor<1x30x!FHE.eint<9>>
    %collapsed = tensor.collapse_shape %16 [[0, 1]] : tensor<1x30x!FHE.eint<9>> into tensor<30x!FHE.eint<9>>
    %extracted_34 = tensor.extract %collapsed[%c0] : tensor<30x!FHE.eint<9>>
    %extracted_35 = tensor.extract %collapsed[%c1] : tensor<30x!FHE.eint<9>>
    %extracted_36 = tensor.extract %collapsed[%c2] : tensor<30x!FHE.eint<9>>
    %extracted_37 = tensor.extract %collapsed[%c3] : tensor<30x!FHE.eint<9>>
    %extracted_38 = tensor.extract %collapsed[%c4] : tensor<30x!FHE.eint<9>>
    %extracted_39 = tensor.extract %collapsed[%c5] : tensor<30x!FHE.eint<9>>
    %extracted_40 = tensor.extract %collapsed[%c6] : tensor<30x!FHE.eint<9>>
    %extracted_41 = tensor.extract %collapsed[%c7] : tensor<30x!FHE.eint<9>>
    %extracted_42 = tensor.extract %collapsed[%c8] : tensor<30x!FHE.eint<9>>
    %extracted_43 = tensor.extract %collapsed[%c9] : tensor<30x!FHE.eint<9>>
    %extracted_44 = tensor.extract %collapsed[%c10] : tensor<30x!FHE.eint<9>>
    %extracted_45 = tensor.extract %collapsed[%c11] : tensor<30x!FHE.eint<9>>
    %extracted_46 = tensor.extract %collapsed[%c12] : tensor<30x!FHE.eint<9>>
    %extracted_47 = tensor.extract %collapsed[%c13] : tensor<30x!FHE.eint<9>>
    %from_elements_48 = tensor.from_elements %extracted_34, %extracted_35, %extracted_36, %extracted_37, %extracted_38, %extracted_39, %extracted_40, %extracted_41, %extracted_42, %extracted_43, %extracted_44, %extracted_45, %extracted_46, %extracted_47 : tensor<14x!FHE.eint<9>>
    %extracted_49 = tensor.extract %collapsed[%c16] : tensor<30x!FHE.eint<9>>
    %extracted_50 = tensor.extract %collapsed[%c17] : tensor<30x!FHE.eint<9>>
    %extracted_51 = tensor.extract %collapsed[%c18] : tensor<30x!FHE.eint<9>>
    %extracted_52 = tensor.extract %collapsed[%c19] : tensor<30x!FHE.eint<9>>
    %extracted_53 = tensor.extract %collapsed[%c20] : tensor<30x!FHE.eint<9>>
    %extracted_54 = tensor.extract %collapsed[%c21] : tensor<30x!FHE.eint<9>>
    %extracted_55 = tensor.extract %collapsed[%c22] : tensor<30x!FHE.eint<9>>
    %extracted_56 = tensor.extract %collapsed[%c23] : tensor<30x!FHE.eint<9>>
    %extracted_57 = tensor.extract %collapsed[%c24] : tensor<30x!FHE.eint<9>>
    %extracted_58 = tensor.extract %collapsed[%c25] : tensor<30x!FHE.eint<9>>
    %extracted_59 = tensor.extract %collapsed[%c26] : tensor<30x!FHE.eint<9>>
    %extracted_60 = tensor.extract %collapsed[%c27] : tensor<30x!FHE.eint<9>>
    %extracted_61 = tensor.extract %collapsed[%c28] : tensor<30x!FHE.eint<9>>
    %extracted_62 = tensor.extract %collapsed[%c29] : tensor<30x!FHE.eint<9>>
    %from_elements_63 = tensor.from_elements %extracted_49, %extracted_50, %extracted_51, %extracted_52, %extracted_53, %extracted_54, %extracted_55, %extracted_56, %extracted_57, %extracted_58, %extracted_59, %extracted_60, %extracted_61, %extracted_62 : tensor<14x!FHE.eint<9>>
    %17 = "FHELinalg.to_signed"(%from_elements_63) : (tensor<14x!FHE.eint<9>>) -> tensor<14x!FHE.esint<9>>
    %18 = "FHELinalg.to_signed"(%from_elements_48) : (tensor<14x!FHE.eint<9>>) -> tensor<14x!FHE.esint<9>>
    %19 = "FHELinalg.sub_eint"(%17, %18) : (tensor<14x!FHE.esint<9>>, tensor<14x!FHE.esint<9>>) -> tensor<14x!FHE.esint<9>>
    %20 = "FHELinalg.mul_eint_int"(%19, %from_elements) : (tensor<14x!FHE.esint<9>>, tensor<1xi10>) -> tensor<14x!FHE.esint<9>>
    %21 = "FHELinalg.round"(%20) : (tensor<14x!FHE.esint<9>>) -> tensor<14x!FHE.esint<6>>
    %cst_64 = arith.constant dense<[0, 4, 8, 12, 16, 20, 24, 28, 32, 36, 40, 44, 48, 52, 56, 60, 64, 68, 72, 76, 80, 84, 88, 92, 96, 100, 104, 108, 112, 116, 120, 124, 0, 0, 0, 0, 0, 0, 0, 0, 0, 0, 0, 0, 0, 0, 0, 0, 0, 0, 0, 0, 0, 0, 0, 0, 0, 0, 0, 0, 0, 0, 0, 0]> : tensor<64xi64>
    %22 = "FHELinalg.apply_lookup_table"(%21, %cst_64) : (tensor<14x!FHE.esint<6>>, tensor<64xi64>) -> tensor<14x!FHE.eint<9>>
    %23 = "FHELinalg.add_eint"(%from_elements_48, %22) : (tensor<14x!FHE.eint<9>>, tensor<14x!FHE.eint<9>>) -> tensor<14x!FHE.eint<9>>
    %24 = "FHELinalg.add_eint"(%from_elements_48, %from_elements_63) : (tensor<14x!FHE.eint<9>>, tensor<14x!FHE.eint<9>>) -> tensor<14x!FHE.eint<9>>
    %25 = "FHELinalg.sub_eint"(%24, %23) : (tensor<14x!FHE.eint<9>>, tensor<14x!FHE.eint<9>>) -> tensor<14x!FHE.eint<9>>
    %extracted_65 = tensor.extract %25[%c0] : tensor<14x!FHE.eint<9>>
    %from_elements_66 = tensor.from_elements %extracted_65 : tensor<1x!FHE.eint<9>>
    %inserted_slice = tensor.insert_slice %from_elements_66 into %collapsed[0] [1] [1] : tensor<1x!FHE.eint<9>> into tensor<30x!FHE.eint<9>>
    %extracted_67 = tensor.extract %25[%c1] : tensor<14x!FHE.eint<9>>
    %from_elements_68 = tensor.from_elements %extracted_67 : tensor<1x!FHE.eint<9>>
    %inserted_slice_69 = tensor.insert_slice %from_elements_68 into %inserted_slice[1] [1] [1] : tensor<1x!FHE.eint<9>> into tensor<30x!FHE.eint<9>>
    %extracted_70 = tensor.extract %25[%c2] : tensor<14x!FHE.eint<9>>
    %from_elements_71 = tensor.from_elements %extracted_70 : tensor<1x!FHE.eint<9>>
    %inserted_slice_72 = tensor.insert_slice %from_elements_71 into %inserted_slice_69[2] [1] [1] : tensor<1x!FHE.eint<9>> into tensor<30x!FHE.eint<9>>
    %extracted_73 = tensor.extract %25[%c3] : tensor<14x!FHE.eint<9>>
    %from_elements_74 = tensor.from_elements %extracted_73 : tensor<1x!FHE.eint<9>>
    %inserted_slice_75 = tensor.insert_slice %from_elements_74 into %inserted_slice_72[3] [1] [1] : tensor<1x!FHE.eint<9>> into tensor<30x!FHE.eint<9>>
    %extracted_76 = tensor.extract %25[%c4] : tensor<14x!FHE.eint<9>>
    %from_elements_77 = tensor.from_elements %extracted_76 : tensor<1x!FHE.eint<9>>
    %inserted_slice_78 = tensor.insert_slice %from_elements_77 into %inserted_slice_75[4] [1] [1] : tensor<1x!FHE.eint<9>> into tensor<30x!FHE.eint<9>>
    %extracted_79 = tensor.extract %25[%c5] : tensor<14x!FHE.eint<9>>
    %from_elements_80 = tensor.from_elements %extracted_79 : tensor<1x!FHE.eint<9>>
    %inserted_slice_81 = tensor.insert_slice %from_elements_80 into %inserted_slice_78[5] [1] [1] : tensor<1x!FHE.eint<9>> into tensor<30x!FHE.eint<9>>
    %extracted_82 = tensor.extract %25[%c6] : tensor<14x!FHE.eint<9>>
    %from_elements_83 = tensor.from_elements %extracted_82 : tensor<1x!FHE.eint<9>>
    %inserted_slice_84 = tensor.insert_slice %from_elements_83 into %inserted_slice_81[6] [1] [1] : tensor<1x!FHE.eint<9>> into tensor<30x!FHE.eint<9>>
    %extracted_85 = tensor.extract %25[%c7] : tensor<14x!FHE.eint<9>>
    %from_elements_86 = tensor.from_elements %extracted_85 : tensor<1x!FHE.eint<9>>
    %inserted_slice_87 = tensor.insert_slice %from_elements_86 into %inserted_slice_84[7] [1] [1] : tensor<1x!FHE.eint<9>> into tensor<30x!FHE.eint<9>>
    %extracted_88 = tensor.extract %25[%c8] : tensor<14x!FHE.eint<9>>
    %from_elements_89 = tensor.from_elements %extracted_88 : tensor<1x!FHE.eint<9>>
    %inserted_slice_90 = tensor.insert_slice %from_elements_89 into %inserted_slice_87[8] [1] [1] : tensor<1x!FHE.eint<9>> into tensor<30x!FHE.eint<9>>
    %extracted_91 = tensor.extract %25[%c9] : tensor<14x!FHE.eint<9>>
    %from_elements_92 = tensor.from_elements %extracted_91 : tensor<1x!FHE.eint<9>>
    %inserted_slice_93 = tensor.insert_slice %from_elements_92 into %inserted_slice_90[9] [1] [1] : tensor<1x!FHE.eint<9>> into tensor<30x!FHE.eint<9>>
    %extracted_94 = tensor.extract %25[%c10] : tensor<14x!FHE.eint<9>>
    %from_elements_95 = tensor.from_elements %extracted_94 : tensor<1x!FHE.eint<9>>
    %inserted_slice_96 = tensor.insert_slice %from_elements_95 into %inserted_slice_93[10] [1] [1] : tensor<1x!FHE.eint<9>> into tensor<30x!FHE.eint<9>>
    %extracted_97 = tensor.extract %25[%c11] : tensor<14x!FHE.eint<9>>
    %from_elements_98 = tensor.from_elements %extracted_97 : tensor<1x!FHE.eint<9>>
    %inserted_slice_99 = tensor.insert_slice %from_elements_98 into %inserted_slice_96[11] [1] [1] : tensor<1x!FHE.eint<9>> into tensor<30x!FHE.eint<9>>
    %extracted_100 = tensor.extract %25[%c12] : tensor<14x!FHE.eint<9>>
    %from_elements_101 = tensor.from_elements %extracted_100 : tensor<1x!FHE.eint<9>>
    %inserted_slice_102 = tensor.insert_slice %from_elements_101 into %inserted_slice_99[12] [1] [1] : tensor<1x!FHE.eint<9>> into tensor<30x!FHE.eint<9>>
    %extracted_103 = tensor.extract %25[%c13] : tensor<14x!FHE.eint<9>>
    %from_elements_104 = tensor.from_elements %extracted_103 : tensor<1x!FHE.eint<9>>
    %inserted_slice_105 = tensor.insert_slice %from_elements_104 into %inserted_slice_102[13] [1] [1] : tensor<1x!FHE.eint<9>> into tensor<30x!FHE.eint<9>>
    %extracted_106 = tensor.extract %23[%c0] : tensor<14x!FHE.eint<9>>
    %from_elements_107 = tensor.from_elements %extracted_106 : tensor<1x!FHE.eint<9>>
    %inserted_slice_108 = tensor.insert_slice %from_elements_107 into %inserted_slice_105[16] [1] [1] : tensor<1x!FHE.eint<9>> into tensor<30x!FHE.eint<9>>
    %extracted_109 = tensor.extract %23[%c1] : tensor<14x!FHE.eint<9>>
    %from_elements_110 = tensor.from_elements %extracted_109 : tensor<1x!FHE.eint<9>>
    %inserted_slice_111 = tensor.insert_slice %from_elements_110 into %inserted_slice_108[17] [1] [1] : tensor<1x!FHE.eint<9>> into tensor<30x!FHE.eint<9>>
    %extracted_112 = tensor.extract %23[%c2] : tensor<14x!FHE.eint<9>>
    %from_elements_113 = tensor.from_elements %extracted_112 : tensor<1x!FHE.eint<9>>
    %inserted_slice_114 = tensor.insert_slice %from_elements_113 into %inserted_slice_111[18] [1] [1] : tensor<1x!FHE.eint<9>> into tensor<30x!FHE.eint<9>>
    %extracted_115 = tensor.extract %23[%c3] : tensor<14x!FHE.eint<9>>
    %from_elements_116 = tensor.from_elements %extracted_115 : tensor<1x!FHE.eint<9>>
    %inserted_slice_117 = tensor.insert_slice %from_elements_116 into %inserted_slice_114[19] [1] [1] : tensor<1x!FHE.eint<9>> into tensor<30x!FHE.eint<9>>
    %extracted_118 = tensor.extract %23[%c4] : tensor<14x!FHE.eint<9>>
    %from_elements_119 = tensor.from_elements %extracted_118 : tensor<1x!FHE.eint<9>>
    %inserted_slice_120 = tensor.insert_slice %from_elements_119 into %inserted_slice_117[20] [1] [1] : tensor<1x!FHE.eint<9>> into tensor<30x!FHE.eint<9>>
    %extracted_121 = tensor.extract %23[%c5] : tensor<14x!FHE.eint<9>>
    %from_elements_122 = tensor.from_elements %extracted_121 : tensor<1x!FHE.eint<9>>
    %inserted_slice_123 = tensor.insert_slice %from_elements_122 into %inserted_slice_120[21] [1] [1] : tensor<1x!FHE.eint<9>> into tensor<30x!FHE.eint<9>>
    %extracted_124 = tensor.extract %23[%c6] : tensor<14x!FHE.eint<9>>
    %from_elements_125 = tensor.from_elements %extracted_124 : tensor<1x!FHE.eint<9>>
    %inserted_slice_126 = tensor.insert_slice %from_elements_125 into %inserted_slice_123[22] [1] [1] : tensor<1x!FHE.eint<9>> into tensor<30x!FHE.eint<9>>
    %extracted_127 = tensor.extract %23[%c7] : tensor<14x!FHE.eint<9>>
    %from_elements_128 = tensor.from_elements %extracted_127 : tensor<1x!FHE.eint<9>>
    %inserted_slice_129 = tensor.insert_slice %from_elements_128 into %inserted_slice_126[23] [1] [1] : tensor<1x!FHE.eint<9>> into tensor<30x!FHE.eint<9>>
    %extracted_130 = tensor.extract %23[%c8] : tensor<14x!FHE.eint<9>>
    %from_elements_131 = tensor.from_elements %extracted_130 : tensor<1x!FHE.eint<9>>
    %inserted_slice_132 = tensor.insert_slice %from_elements_131 into %inserted_slice_129[24] [1] [1] : tensor<1x!FHE.eint<9>> into tensor<30x!FHE.eint<9>>
    %extracted_133 = tensor.extract %23[%c9] : tensor<14x!FHE.eint<9>>
    %from_elements_134 = tensor.from_elements %extracted_133 : tensor<1x!FHE.eint<9>>
    %inserted_slice_135 = tensor.insert_slice %from_elements_134 into %inserted_slice_132[25] [1] [1] : tensor<1x!FHE.eint<9>> into tensor<30x!FHE.eint<9>>
    %extracted_136 = tensor.extract %23[%c10] : tensor<14x!FHE.eint<9>>
    %from_elements_137 = tensor.from_elements %extracted_136 : tensor<1x!FHE.eint<9>>
    %inserted_slice_138 = tensor.insert_slice %from_elements_137 into %inserted_slice_135[26] [1] [1] : tensor<1x!FHE.eint<9>> into tensor<30x!FHE.eint<9>>
    %extracted_139 = tensor.extract %23[%c11] : tensor<14x!FHE.eint<9>>
    %from_elements_140 = tensor.from_elements %extracted_139 : tensor<1x!FHE.eint<9>>
    %inserted_slice_141 = tensor.insert_slice %from_elements_140 into %inserted_slice_138[27] [1] [1] : tensor<1x!FHE.eint<9>> into tensor<30x!FHE.eint<9>>
    %extracted_142 = tensor.extract %23[%c12] : tensor<14x!FHE.eint<9>>
    %from_elements_143 = tensor.from_elements %extracted_142 : tensor<1x!FHE.eint<9>>
    %inserted_slice_144 = tensor.insert_slice %from_elements_143 into %inserted_slice_141[28] [1] [1] : tensor<1x!FHE.eint<9>> into tensor<30x!FHE.eint<9>>
    %extracted_145 = tensor.extract %23[%c13] : tensor<14x!FHE.eint<9>>
    %from_elements_146 = tensor.from_elements %extracted_145 : tensor<1x!FHE.eint<9>>
    %inserted_slice_147 = tensor.insert_slice %from_elements_146 into %inserted_slice_144[29] [1] [1] : tensor<1x!FHE.eint<9>> into tensor<30x!FHE.eint<9>>
    %cst_148 = arith.constant dense<[0, 1, 1, 1, 1, 1, 1, 1, 1, 1, 1, 1, 1, 1, 1, 1, 1, 1, 1, 1, 1, 1, 1, 1, 1, 1, 1, 1, 1, 1, 1, 1, 0, 0, 0, 0, 0, 0, 0, 0, 0, 0, 0, 0, 0, 0, 0, 0, 0, 0, 0, 0, 0, 0, 0, 0, 0, 0, 0, 0, 0, 0, 0, 0]> : tensor<64xi64>
    %26 = "FHELinalg.apply_lookup_table"(%21, %cst_148) : (tensor<14x!FHE.esint<6>>, tensor<64xi64>) -> tensor<14x!FHE.eint<3>>
    %27 = "FHELinalg.to_signed"(%26) : (tensor<14x!FHE.eint<3>>) -> tensor<14x!FHE.esint<3>>
    %28 = "FHELinalg.mul_eint"(%14, %27) : (tensor<14x!FHE.esint<3>>, tensor<14x!FHE.esint<3>>) -> tensor<14x!FHE.esint<3>>
    %29 = "FHELinalg.to_unsigned"(%28) : (tensor<14x!FHE.esint<3>>) -> tensor<14x!FHE.eint<3>>
    %30 = "FHELinalg.add_eint"(%from_elements_17, %29) : (tensor<14x!FHE.eint<3>>, tensor<14x!FHE.eint<3>>) -> tensor<14x!FHE.eint<3>>
    %31 = "FHELinalg.sub_eint"(%15, %30) : (tensor<14x!FHE.eint<3>>, tensor<14x!FHE.eint<3>>) -> tensor<14x!FHE.eint<3>>
    %extracted_149 = tensor.extract %31[%c0] : tensor<14x!FHE.eint<3>>
    %from_elements_150 = tensor.from_elements %extracted_149 : tensor<1x!FHE.eint<3>>
    %inserted_slice_151 = tensor.insert_slice %from_elements_150 into %11[0] [1] [1] : tensor<1x!FHE.eint<3>> into tensor<30x!FHE.eint<3>>
    %extracted_152 = tensor.extract %31[%c1] : tensor<14x!FHE.eint<3>>
    %from_elements_153 = tensor.from_elements %extracted_152 : tensor<1x!FHE.eint<3>>
    %inserted_slice_154 = tensor.insert_slice %from_elements_153 into %inserted_slice_151[1] [1] [1] : tensor<1x!FHE.eint<3>> into tensor<30x!FHE.eint<3>>
    %extracted_155 = tensor.extract %31[%c2] : tensor<14x!FHE.eint<3>>
    %from_elements_156 = tensor.from_elements %extracted_155 : tensor<1x!FHE.eint<3>>
    %inserted_slice_157 = tensor.insert_slice %from_elements_156 into %inserted_slice_154[2] [1] [1] : tensor<1x!FHE.eint<3>> into tensor<30x!FHE.eint<3>>
    %extracted_158 = tensor.extract %31[%c3] : tensor<14x!FHE.eint<3>>
    %from_elements_159 = tensor.from_elements %extracted_158 : tensor<1x!FHE.eint<3>>
    %inserted_slice_160 = tensor.insert_slice %from_elements_159 into %inserted_slice_157[3] [1] [1] : tensor<1x!FHE.eint<3>> into tensor<30x!FHE.eint<3>>
    %extracted_161 = tensor.extract %31[%c4] : tensor<14x!FHE.eint<3>>
    %from_elements_162 = tensor.from_elements %extracted_161 : tensor<1x!FHE.eint<3>>
    %inserted_slice_163 = tensor.insert_slice %from_elements_162 into %inserted_slice_160[4] [1] [1] : tensor<1x!FHE.eint<3>> into tensor<30x!FHE.eint<3>>
    %extracted_164 = tensor.extract %31[%c5] : tensor<14x!FHE.eint<3>>
    %from_elements_165 = tensor.from_elements %extracted_164 : tensor<1x!FHE.eint<3>>
    %inserted_slice_166 = tensor.insert_slice %from_elements_165 into %inserted_slice_163[5] [1] [1] : tensor<1x!FHE.eint<3>> into tensor<30x!FHE.eint<3>>
    %extracted_167 = tensor.extract %31[%c6] : tensor<14x!FHE.eint<3>>
    %from_elements_168 = tensor.from_elements %extracted_167 : tensor<1x!FHE.eint<3>>
    %inserted_slice_169 = tensor.insert_slice %from_elements_168 into %inserted_slice_166[6] [1] [1] : tensor<1x!FHE.eint<3>> into tensor<30x!FHE.eint<3>>
    %extracted_170 = tensor.extract %31[%c7] : tensor<14x!FHE.eint<3>>
    %from_elements_171 = tensor.from_elements %extracted_170 : tensor<1x!FHE.eint<3>>
    %inserted_slice_172 = tensor.insert_slice %from_elements_171 into %inserted_slice_169[7] [1] [1] : tensor<1x!FHE.eint<3>> into tensor<30x!FHE.eint<3>>
    %extracted_173 = tensor.extract %31[%c8] : tensor<14x!FHE.eint<3>>
    %from_elements_174 = tensor.from_elements %extracted_173 : tensor<1x!FHE.eint<3>>
    %inserted_slice_175 = tensor.insert_slice %from_elements_174 into %inserted_slice_172[8] [1] [1] : tensor<1x!FHE.eint<3>> into tensor<30x!FHE.eint<3>>
    %extracted_176 = tensor.extract %31[%c9] : tensor<14x!FHE.eint<3>>
    %from_elements_177 = tensor.from_elements %extracted_176 : tensor<1x!FHE.eint<3>>
    %inserted_slice_178 = tensor.insert_slice %from_elements_177 into %inserted_slice_175[9] [1] [1] : tensor<1x!FHE.eint<3>> into tensor<30x!FHE.eint<3>>
    %extracted_179 = tensor.extract %31[%c10] : tensor<14x!FHE.eint<3>>
    %from_elements_180 = tensor.from_elements %extracted_179 : tensor<1x!FHE.eint<3>>
    %inserted_slice_181 = tensor.insert_slice %from_elements_180 into %inserted_slice_178[10] [1] [1] : tensor<1x!FHE.eint<3>> into tensor<30x!FHE.eint<3>>
    %extracted_182 = tensor.extract %31[%c11] : tensor<14x!FHE.eint<3>>
    %from_elements_183 = tensor.from_elements %extracted_182 : tensor<1x!FHE.eint<3>>
    %inserted_slice_184 = tensor.insert_slice %from_elements_183 into %inserted_slice_181[11] [1] [1] : tensor<1x!FHE.eint<3>> into tensor<30x!FHE.eint<3>>
    %extracted_185 = tensor.extract %31[%c12] : tensor<14x!FHE.eint<3>>
    %from_elements_186 = tensor.from_elements %extracted_185 : tensor<1x!FHE.eint<3>>
    %inserted_slice_187 = tensor.insert_slice %from_elements_186 into %inserted_slice_184[12] [1] [1] : tensor<1x!FHE.eint<3>> into tensor<30x!FHE.eint<3>>
    %extracted_188 = tensor.extract %31[%c13] : tensor<14x!FHE.eint<3>>
    %from_elements_189 = tensor.from_elements %extracted_188 : tensor<1x!FHE.eint<3>>
    %inserted_slice_190 = tensor.insert_slice %from_elements_189 into %inserted_slice_187[13] [1] [1] : tensor<1x!FHE.eint<3>> into tensor<30x!FHE.eint<3>>
    %extracted_191 = tensor.extract %30[%c0] : tensor<14x!FHE.eint<3>>
    %from_elements_192 = tensor.from_elements %extracted_191 : tensor<1x!FHE.eint<3>>
    %inserted_slice_193 = tensor.insert_slice %from_elements_192 into %inserted_slice_190[16] [1] [1] : tensor<1x!FHE.eint<3>> into tensor<30x!FHE.eint<3>>
    %extracted_194 = tensor.extract %30[%c1] : tensor<14x!FHE.eint<3>>
    %from_elements_195 = tensor.from_elements %extracted_194 : tensor<1x!FHE.eint<3>>
    %inserted_slice_196 = tensor.insert_slice %from_elements_195 into %inserted_slice_193[17] [1] [1] : tensor<1x!FHE.eint<3>> into tensor<30x!FHE.eint<3>>
    %extracted_197 = tensor.extract %30[%c2] : tensor<14x!FHE.eint<3>>
    %from_elements_198 = tensor.from_elements %extracted_197 : tensor<1x!FHE.eint<3>>
    %inserted_slice_199 = tensor.insert_slice %from_elements_198 into %inserted_slice_196[18] [1] [1] : tensor<1x!FHE.eint<3>> into tensor<30x!FHE.eint<3>>
    %extracted_200 = tensor.extract %30[%c3] : tensor<14x!FHE.eint<3>>
    %from_elements_201 = tensor.from_elements %extracted_200 : tensor<1x!FHE.eint<3>>
    %inserted_slice_202 = tensor.insert_slice %from_elements_201 into %inserted_slice_199[19] [1] [1] : tensor<1x!FHE.eint<3>> into tensor<30x!FHE.eint<3>>
    %extracted_203 = tensor.extract %30[%c4] : tensor<14x!FHE.eint<3>>
    %from_elements_204 = tensor.from_elements %extracted_203 : tensor<1x!FHE.eint<3>>
    %inserted_slice_205 = tensor.insert_slice %from_elements_204 into %inserted_slice_202[20] [1] [1] : tensor<1x!FHE.eint<3>> into tensor<30x!FHE.eint<3>>
    %extracted_206 = tensor.extract %30[%c5] : tensor<14x!FHE.eint<3>>
    %from_elements_207 = tensor.from_elements %extracted_206 : tensor<1x!FHE.eint<3>>
    %inserted_slice_208 = tensor.insert_slice %from_elements_207 into %inserted_slice_205[21] [1] [1] : tensor<1x!FHE.eint<3>> into tensor<30x!FHE.eint<3>>
    %extracted_209 = tensor.extract %30[%c6] : tensor<14x!FHE.eint<3>>
    %from_elements_210 = tensor.from_elements %extracted_209 : tensor<1x!FHE.eint<3>>
    %inserted_slice_211 = tensor.insert_slice %from_elements_210 into %inserted_slice_208[22] [1] [1] : tensor<1x!FHE.eint<3>> into tensor<30x!FHE.eint<3>>
    %extracted_212 = tensor.extract %30[%c7] : tensor<14x!FHE.eint<3>>
    %from_elements_213 = tensor.from_elements %extracted_212 : tensor<1x!FHE.eint<3>>
    %inserted_slice_214 = tensor.insert_slice %from_elements_213 into %inserted_slice_211[23] [1] [1] : tensor<1x!FHE.eint<3>> into tensor<30x!FHE.eint<3>>
    %extracted_215 = tensor.extract %30[%c8] : tensor<14x!FHE.eint<3>>
    %from_elements_216 = tensor.from_elements %extracted_215 : tensor<1x!FHE.eint<3>>
    %inserted_slice_217 = tensor.insert_slice %from_elements_216 into %inserted_slice_214[24] [1] [1] : tensor<1x!FHE.eint<3>> into tensor<30x!FHE.eint<3>>
    %extracted_218 = tensor.extract %30[%c9] : tensor<14x!FHE.eint<3>>
    %from_elements_219 = tensor.from_elements %extracted_218 : tensor<1x!FHE.eint<3>>
    %inserted_slice_220 = tensor.insert_slice %from_elements_219 into %inserted_slice_217[25] [1] [1] : tensor<1x!FHE.eint<3>> into tensor<30x!FHE.eint<3>>
    %extracted_221 = tensor.extract %30[%c10] : tensor<14x!FHE.eint<3>>
    %from_elements_222 = tensor.from_elements %extracted_221 : tensor<1x!FHE.eint<3>>
    %inserted_slice_223 = tensor.insert_slice %from_elements_222 into %inserted_slice_220[26] [1] [1] : tensor<1x!FHE.eint<3>> into tensor<30x!FHE.eint<3>>
    %extracted_224 = tensor.extract %30[%c11] : tensor<14x!FHE.eint<3>>
    %from_elements_225 = tensor.from_elements %extracted_224 : tensor<1x!FHE.eint<3>>
    %inserted_slice_226 = tensor.insert_slice %from_elements_225 into %inserted_slice_223[27] [1] [1] : tensor<1x!FHE.eint<3>> into tensor<30x!FHE.eint<3>>
    %extracted_227 = tensor.extract %30[%c12] : tensor<14x!FHE.eint<3>>
    %from_elements_228 = tensor.from_elements %extracted_227 : tensor<1x!FHE.eint<3>>
    %inserted_slice_229 = tensor.insert_slice %from_elements_228 into %inserted_slice_226[28] [1] [1] : tensor<1x!FHE.eint<3>> into tensor<30x!FHE.eint<3>>
    %extracted_230 = tensor.extract %30[%c13] : tensor<14x!FHE.eint<3>>
    %from_elements_231 = tensor.from_elements %extracted_230 : tensor<1x!FHE.eint<3>>
    %inserted_slice_232 = tensor.insert_slice %from_elements_231 into %inserted_slice_229[29] [1] [1] : tensor<1x!FHE.eint<3>> into tensor<30x!FHE.eint<3>>
    %extracted_233 = tensor.extract %inserted_slice_147[%c0] : tensor<30x!FHE.eint<9>>
    %extracted_234 = tensor.extract %inserted_slice_147[%c1] : tensor<30x!FHE.eint<9>>
    %extracted_235 = tensor.extract %inserted_slice_147[%c2] : tensor<30x!FHE.eint<9>>
    %extracted_236 = tensor.extract %inserted_slice_147[%c3] : tensor<30x!FHE.eint<9>>
    %extracted_237 = tensor.extract %inserted_slice_147[%c4] : tensor<30x!FHE.eint<9>>
    %extracted_238 = tensor.extract %inserted_slice_147[%c5] : tensor<30x!FHE.eint<9>>
    %extracted_239 = tensor.extract %inserted_slice_147[%c6] : tensor<30x!FHE.eint<9>>
    %extracted_240 = tensor.extract %inserted_slice_147[%c7] : tensor<30x!FHE.eint<9>>
    %extracted_241 = tensor.extract %inserted_slice_147[%c16] : tensor<30x!FHE.eint<9>>
    %extracted_242 = tensor.extract %inserted_slice_147[%c17] : tensor<30x!FHE.eint<9>>
    %extracted_243 = tensor.extract %inserted_slice_147[%c18] : tensor<30x!FHE.eint<9>>
    %extracted_244 = tensor.extract %inserted_slice_147[%c19] : tensor<30x!FHE.eint<9>>
    %extracted_245 = tensor.extract %inserted_slice_147[%c20] : tensor<30x!FHE.eint<9>>
    %extracted_246 = tensor.extract %inserted_slice_147[%c21] : tensor<30x!FHE.eint<9>>
    %from_elements_247 = tensor.from_elements %extracted_233, %extracted_234, %extracted_235, %extracted_236, %extracted_237, %extracted_238, %extracted_239, %extracted_240, %extracted_241, %extracted_242, %extracted_243, %extracted_244, %extracted_245, %extracted_246 : tensor<14x!FHE.eint<9>>
    %extracted_248 = tensor.extract %inserted_slice_147[%c8] : tensor<30x!FHE.eint<9>>
    %extracted_249 = tensor.extract %inserted_slice_147[%c9] : tensor<30x!FHE.eint<9>>
    %extracted_250 = tensor.extract %inserted_slice_147[%c10] : tensor<30x!FHE.eint<9>>
    %extracted_251 = tensor.extract %inserted_slice_147[%c11] : tensor<30x!FHE.eint<9>>
    %extracted_252 = tensor.extract %inserted_slice_147[%c12] : tensor<30x!FHE.eint<9>>
    %extracted_253 = tensor.extract %inserted_slice_147[%c13] : tensor<30x!FHE.eint<9>>
    %c14 = arith.constant 14 : index
    %extracted_254 = tensor.extract %inserted_slice_147[%c14] : tensor<30x!FHE.eint<9>>
    %c15 = arith.constant 15 : index
    %extracted_255 = tensor.extract %inserted_slice_147[%c15] : tensor<30x!FHE.eint<9>>
    %extracted_256 = tensor.extract %inserted_slice_147[%c24] : tensor<30x!FHE.eint<9>>
    %extracted_257 = tensor.extract %inserted_slice_147[%c25] : tensor<30x!FHE.eint<9>>
    %extracted_258 = tensor.extract %inserted_slice_147[%c26] : tensor<30x!FHE.eint<9>>
    %extracted_259 = tensor.extract %inserted_slice_147[%c27] : tensor<30x!FHE.eint<9>>
    %extracted_260 = tensor.extract %inserted_slice_147[%c28] : tensor<30x!FHE.eint<9>>
    %extracted_261 = tensor.extract %inserted_slice_147[%c29] : tensor<30x!FHE.eint<9>>
    %from_elements_262 = tensor.from_elements %extracted_248, %extracted_249, %extracted_250, %extracted_251, %extracted_252, %extracted_253, %extracted_254, %extracted_255, %extracted_256, %extracted_257, %extracted_258, %extracted_259, %extracted_260, %extracted_261 : tensor<14x!FHE.eint<9>>
    %extracted_263 = tensor.extract %inserted_slice_232[%c0] : tensor<30x!FHE.eint<3>>
    %extracted_264 = tensor.extract %inserted_slice_232[%c1] : tensor<30x!FHE.eint<3>>
    %extracted_265 = tensor.extract %inserted_slice_232[%c2] : tensor<30x!FHE.eint<3>>
    %extracted_266 = tensor.extract %inserted_slice_232[%c3] : tensor<30x!FHE.eint<3>>
    %extracted_267 = tensor.extract %inserted_slice_232[%c4] : tensor<30x!FHE.eint<3>>
    %extracted_268 = tensor.extract %inserted_slice_232[%c5] : tensor<30x!FHE.eint<3>>
    %extracted_269 = tensor.extract %inserted_slice_232[%c6] : tensor<30x!FHE.eint<3>>
    %extracted_270 = tensor.extract %inserted_slice_232[%c7] : tensor<30x!FHE.eint<3>>
    %extracted_271 = tensor.extract %inserted_slice_232[%c16] : tensor<30x!FHE.eint<3>>
    %extracted_272 = tensor.extract %inserted_slice_232[%c17] : tensor<30x!FHE.eint<3>>
    %extracted_273 = tensor.extract %inserted_slice_232[%c18] : tensor<30x!FHE.eint<3>>
    %extracted_274 = tensor.extract %inserted_slice_232[%c19] : tensor<30x!FHE.eint<3>>
    %extracted_275 = tensor.extract %inserted_slice_232[%c20] : tensor<30x!FHE.eint<3>>
    %extracted_276 = tensor.extract %inserted_slice_232[%c21] : tensor<30x!FHE.eint<3>>
    %from_elements_277 = tensor.from_elements %extracted_263, %extracted_264, %extracted_265, %extracted_266, %extracted_267, %extracted_268, %extracted_269, %extracted_270, %extracted_271, %extracted_272, %extracted_273, %extracted_274, %extracted_275, %extracted_276 : tensor<14x!FHE.eint<3>>
    %extracted_278 = tensor.extract %inserted_slice_232[%c8] : tensor<30x!FHE.eint<3>>
    %extracted_279 = tensor.extract %inserted_slice_232[%c9] : tensor<30x!FHE.eint<3>>
    %extracted_280 = tensor.extract %inserted_slice_232[%c10] : tensor<30x!FHE.eint<3>>
    %extracted_281 = tensor.extract %inserted_slice_232[%c11] : tensor<30x!FHE.eint<3>>
    %extracted_282 = tensor.extract %inserted_slice_232[%c12] : tensor<30x!FHE.eint<3>>
    %extracted_283 = tensor.extract %inserted_slice_232[%c13] : tensor<30x!FHE.eint<3>>
    %extracted_284 = tensor.extract %inserted_slice_232[%c14] : tensor<30x!FHE.eint<3>>
    %extracted_285 = tensor.extract %inserted_slice_232[%c15] : tensor<30x!FHE.eint<3>>
    %extracted_286 = tensor.extract %inserted_slice_232[%c24] : tensor<30x!FHE.eint<3>>
    %extracted_287 = tensor.extract %inserted_slice_232[%c25] : tensor<30x!FHE.eint<3>>
    %extracted_288 = tensor.extract %inserted_slice_232[%c26] : tensor<30x!FHE.eint<3>>
    %extracted_289 = tensor.extract %inserted_slice_232[%c27] : tensor<30x!FHE.eint<3>>
    %extracted_290 = tensor.extract %inserted_slice_232[%c28] : tensor<30x!FHE.eint<3>>
    %extracted_291 = tensor.extract %inserted_slice_232[%c29] : tensor<30x!FHE.eint<3>>
    %from_elements_292 = tensor.from_elements %extracted_278, %extracted_279, %extracted_280, %extracted_281, %extracted_282, %extracted_283, %extracted_284, %extracted_285, %extracted_286, %extracted_287, %extracted_288, %extracted_289, %extracted_290, %extracted_291 : tensor<14x!FHE.eint<3>>
    %32 = "FHELinalg.to_signed"(%from_elements_262) : (tensor<14x!FHE.eint<9>>) -> tensor<14x!FHE.esint<9>>
    %33 = "FHELinalg.to_signed"(%from_elements_247) : (tensor<14x!FHE.eint<9>>) -> tensor<14x!FHE.esint<9>>
    %34 = "FHELinalg.sub_eint"(%32, %33) : (tensor<14x!FHE.esint<9>>, tensor<14x!FHE.esint<9>>) -> tensor<14x!FHE.esint<9>>
    %35 = "FHELinalg.mul_eint_int"(%34, %from_elements) : (tensor<14x!FHE.esint<9>>, tensor<1xi10>) -> tensor<14x!FHE.esint<9>>
    %36 = "FHELinalg.round"(%35) : (tensor<14x!FHE.esint<9>>) -> tensor<14x!FHE.esint<6>>
    %37 = "FHELinalg.apply_lookup_table"(%36, %cst_64) : (tensor<14x!FHE.esint<6>>, tensor<64xi64>) -> tensor<14x!FHE.eint<9>>
    %38 = "FHELinalg.add_eint"(%from_elements_247, %37) : (tensor<14x!FHE.eint<9>>, tensor<14x!FHE.eint<9>>) -> tensor<14x!FHE.eint<9>>
    %39 = "FHELinalg.add_eint"(%from_elements_247, %from_elements_262) : (tensor<14x!FHE.eint<9>>, tensor<14x!FHE.eint<9>>) -> tensor<14x!FHE.eint<9>>
    %40 = "FHELinalg.sub_eint"(%39, %38) : (tensor<14x!FHE.eint<9>>, tensor<14x!FHE.eint<9>>) -> tensor<14x!FHE.eint<9>>
    %extracted_293 = tensor.extract %40[%c0] : tensor<14x!FHE.eint<9>>
    %from_elements_294 = tensor.from_elements %extracted_293 : tensor<1x!FHE.eint<9>>
    %inserted_slice_295 = tensor.insert_slice %from_elements_294 into %inserted_slice_147[0] [1] [1] : tensor<1x!FHE.eint<9>> into tensor<30x!FHE.eint<9>>
    %extracted_296 = tensor.extract %40[%c1] : tensor<14x!FHE.eint<9>>
    %from_elements_297 = tensor.from_elements %extracted_296 : tensor<1x!FHE.eint<9>>
    %inserted_slice_298 = tensor.insert_slice %from_elements_297 into %inserted_slice_295[1] [1] [1] : tensor<1x!FHE.eint<9>> into tensor<30x!FHE.eint<9>>
    %extracted_299 = tensor.extract %40[%c2] : tensor<14x!FHE.eint<9>>
    %from_elements_300 = tensor.from_elements %extracted_299 : tensor<1x!FHE.eint<9>>
    %inserted_slice_301 = tensor.insert_slice %from_elements_300 into %inserted_slice_298[2] [1] [1] : tensor<1x!FHE.eint<9>> into tensor<30x!FHE.eint<9>>
    %extracted_302 = tensor.extract %40[%c3] : tensor<14x!FHE.eint<9>>
    %from_elements_303 = tensor.from_elements %extracted_302 : tensor<1x!FHE.eint<9>>
    %inserted_slice_304 = tensor.insert_slice %from_elements_303 into %inserted_slice_301[3] [1] [1] : tensor<1x!FHE.eint<9>> into tensor<30x!FHE.eint<9>>
    %extracted_305 = tensor.extract %40[%c4] : tensor<14x!FHE.eint<9>>
    %from_elements_306 = tensor.from_elements %extracted_305 : tensor<1x!FHE.eint<9>>
    %inserted_slice_307 = tensor.insert_slice %from_elements_306 into %inserted_slice_304[4] [1] [1] : tensor<1x!FHE.eint<9>> into tensor<30x!FHE.eint<9>>
    %extracted_308 = tensor.extract %40[%c5] : tensor<14x!FHE.eint<9>>
    %from_elements_309 = tensor.from_elements %extracted_308 : tensor<1x!FHE.eint<9>>
    %inserted_slice_310 = tensor.insert_slice %from_elements_309 into %inserted_slice_307[5] [1] [1] : tensor<1x!FHE.eint<9>> into tensor<30x!FHE.eint<9>>
    %extracted_311 = tensor.extract %40[%c6] : tensor<14x!FHE.eint<9>>
    %from_elements_312 = tensor.from_elements %extracted_311 : tensor<1x!FHE.eint<9>>
    %inserted_slice_313 = tensor.insert_slice %from_elements_312 into %inserted_slice_310[6] [1] [1] : tensor<1x!FHE.eint<9>> into tensor<30x!FHE.eint<9>>
    %extracted_314 = tensor.extract %40[%c7] : tensor<14x!FHE.eint<9>>
    %from_elements_315 = tensor.from_elements %extracted_314 : tensor<1x!FHE.eint<9>>
    %inserted_slice_316 = tensor.insert_slice %from_elements_315 into %inserted_slice_313[7] [1] [1] : tensor<1x!FHE.eint<9>> into tensor<30x!FHE.eint<9>>
    %extracted_317 = tensor.extract %40[%c8] : tensor<14x!FHE.eint<9>>
    %from_elements_318 = tensor.from_elements %extracted_317 : tensor<1x!FHE.eint<9>>
    %inserted_slice_319 = tensor.insert_slice %from_elements_318 into %inserted_slice_316[16] [1] [1] : tensor<1x!FHE.eint<9>> into tensor<30x!FHE.eint<9>>
    %extracted_320 = tensor.extract %40[%c9] : tensor<14x!FHE.eint<9>>
    %from_elements_321 = tensor.from_elements %extracted_320 : tensor<1x!FHE.eint<9>>
    %inserted_slice_322 = tensor.insert_slice %from_elements_321 into %inserted_slice_319[17] [1] [1] : tensor<1x!FHE.eint<9>> into tensor<30x!FHE.eint<9>>
    %extracted_323 = tensor.extract %40[%c10] : tensor<14x!FHE.eint<9>>
    %from_elements_324 = tensor.from_elements %extracted_323 : tensor<1x!FHE.eint<9>>
    %inserted_slice_325 = tensor.insert_slice %from_elements_324 into %inserted_slice_322[18] [1] [1] : tensor<1x!FHE.eint<9>> into tensor<30x!FHE.eint<9>>
    %extracted_326 = tensor.extract %40[%c11] : tensor<14x!FHE.eint<9>>
    %from_elements_327 = tensor.from_elements %extracted_326 : tensor<1x!FHE.eint<9>>
    %inserted_slice_328 = tensor.insert_slice %from_elements_327 into %inserted_slice_325[19] [1] [1] : tensor<1x!FHE.eint<9>> into tensor<30x!FHE.eint<9>>
    %extracted_329 = tensor.extract %40[%c12] : tensor<14x!FHE.eint<9>>
    %from_elements_330 = tensor.from_elements %extracted_329 : tensor<1x!FHE.eint<9>>
    %inserted_slice_331 = tensor.insert_slice %from_elements_330 into %inserted_slice_328[20] [1] [1] : tensor<1x!FHE.eint<9>> into tensor<30x!FHE.eint<9>>
    %extracted_332 = tensor.extract %40[%c13] : tensor<14x!FHE.eint<9>>
    %from_elements_333 = tensor.from_elements %extracted_332 : tensor<1x!FHE.eint<9>>
    %inserted_slice_334 = tensor.insert_slice %from_elements_333 into %inserted_slice_331[21] [1] [1] : tensor<1x!FHE.eint<9>> into tensor<30x!FHE.eint<9>>
    %extracted_335 = tensor.extract %38[%c0] : tensor<14x!FHE.eint<9>>
    %from_elements_336 = tensor.from_elements %extracted_335 : tensor<1x!FHE.eint<9>>
    %inserted_slice_337 = tensor.insert_slice %from_elements_336 into %inserted_slice_334[8] [1] [1] : tensor<1x!FHE.eint<9>> into tensor<30x!FHE.eint<9>>
    %extracted_338 = tensor.extract %38[%c1] : tensor<14x!FHE.eint<9>>
    %from_elements_339 = tensor.from_elements %extracted_338 : tensor<1x!FHE.eint<9>>
    %inserted_slice_340 = tensor.insert_slice %from_elements_339 into %inserted_slice_337[9] [1] [1] : tensor<1x!FHE.eint<9>> into tensor<30x!FHE.eint<9>>
    %extracted_341 = tensor.extract %38[%c2] : tensor<14x!FHE.eint<9>>
    %from_elements_342 = tensor.from_elements %extracted_341 : tensor<1x!FHE.eint<9>>
    %inserted_slice_343 = tensor.insert_slice %from_elements_342 into %inserted_slice_340[10] [1] [1] : tensor<1x!FHE.eint<9>> into tensor<30x!FHE.eint<9>>
    %extracted_344 = tensor.extract %38[%c3] : tensor<14x!FHE.eint<9>>
    %from_elements_345 = tensor.from_elements %extracted_344 : tensor<1x!FHE.eint<9>>
    %inserted_slice_346 = tensor.insert_slice %from_elements_345 into %inserted_slice_343[11] [1] [1] : tensor<1x!FHE.eint<9>> into tensor<30x!FHE.eint<9>>
    %extracted_347 = tensor.extract %38[%c4] : tensor<14x!FHE.eint<9>>
    %from_elements_348 = tensor.from_elements %extracted_347 : tensor<1x!FHE.eint<9>>
    %inserted_slice_349 = tensor.insert_slice %from_elements_348 into %inserted_slice_346[12] [1] [1] : tensor<1x!FHE.eint<9>> into tensor<30x!FHE.eint<9>>
    %extracted_350 = tensor.extract %38[%c5] : tensor<14x!FHE.eint<9>>
    %from_elements_351 = tensor.from_elements %extracted_350 : tensor<1x!FHE.eint<9>>
    %inserted_slice_352 = tensor.insert_slice %from_elements_351 into %inserted_slice_349[13] [1] [1] : tensor<1x!FHE.eint<9>> into tensor<30x!FHE.eint<9>>
    %extracted_353 = tensor.extract %38[%c6] : tensor<14x!FHE.eint<9>>
    %from_elements_354 = tensor.from_elements %extracted_353 : tensor<1x!FHE.eint<9>>
    %inserted_slice_355 = tensor.insert_slice %from_elements_354 into %inserted_slice_352[14] [1] [1] : tensor<1x!FHE.eint<9>> into tensor<30x!FHE.eint<9>>
    %extracted_356 = tensor.extract %38[%c7] : tensor<14x!FHE.eint<9>>
    %from_elements_357 = tensor.from_elements %extracted_356 : tensor<1x!FHE.eint<9>>
    %inserted_slice_358 = tensor.insert_slice %from_elements_357 into %inserted_slice_355[15] [1] [1] : tensor<1x!FHE.eint<9>> into tensor<30x!FHE.eint<9>>
    %extracted_359 = tensor.extract %38[%c8] : tensor<14x!FHE.eint<9>>
    %from_elements_360 = tensor.from_elements %extracted_359 : tensor<1x!FHE.eint<9>>
    %inserted_slice_361 = tensor.insert_slice %from_elements_360 into %inserted_slice_358[24] [1] [1] : tensor<1x!FHE.eint<9>> into tensor<30x!FHE.eint<9>>
    %extracted_362 = tensor.extract %38[%c9] : tensor<14x!FHE.eint<9>>
    %from_elements_363 = tensor.from_elements %extracted_362 : tensor<1x!FHE.eint<9>>
    %inserted_slice_364 = tensor.insert_slice %from_elements_363 into %inserted_slice_361[25] [1] [1] : tensor<1x!FHE.eint<9>> into tensor<30x!FHE.eint<9>>
    %extracted_365 = tensor.extract %38[%c10] : tensor<14x!FHE.eint<9>>
    %from_elements_366 = tensor.from_elements %extracted_365 : tensor<1x!FHE.eint<9>>
    %inserted_slice_367 = tensor.insert_slice %from_elements_366 into %inserted_slice_364[26] [1] [1] : tensor<1x!FHE.eint<9>> into tensor<30x!FHE.eint<9>>
    %extracted_368 = tensor.extract %38[%c11] : tensor<14x!FHE.eint<9>>
    %from_elements_369 = tensor.from_elements %extracted_368 : tensor<1x!FHE.eint<9>>
    %inserted_slice_370 = tensor.insert_slice %from_elements_369 into %inserted_slice_367[27] [1] [1] : tensor<1x!FHE.eint<9>> into tensor<30x!FHE.eint<9>>
    %extracted_371 = tensor.extract %38[%c12] : tensor<14x!FHE.eint<9>>
    %from_elements_372 = tensor.from_elements %extracted_371 : tensor<1x!FHE.eint<9>>
    %inserted_slice_373 = tensor.insert_slice %from_elements_372 into %inserted_slice_370[28] [1] [1] : tensor<1x!FHE.eint<9>> into tensor<30x!FHE.eint<9>>
    %extracted_374 = tensor.extract %38[%c13] : tensor<14x!FHE.eint<9>>
    %from_elements_375 = tensor.from_elements %extracted_374 : tensor<1x!FHE.eint<9>>
    %inserted_slice_376 = tensor.insert_slice %from_elements_375 into %inserted_slice_373[29] [1] [1] : tensor<1x!FHE.eint<9>> into tensor<30x!FHE.eint<9>>
    %41 = "FHELinalg.apply_lookup_table"(%36, %cst_148) : (tensor<14x!FHE.esint<6>>, tensor<64xi64>) -> tensor<14x!FHE.eint<3>>
    %42 = "FHELinalg.to_signed"(%from_elements_292) : (tensor<14x!FHE.eint<3>>) -> tensor<14x!FHE.esint<3>>
    %43 = "FHELinalg.to_signed"(%from_elements_277) : (tensor<14x!FHE.eint<3>>) -> tensor<14x!FHE.esint<3>>
    %44 = "FHELinalg.sub_eint"(%42, %43) : (tensor<14x!FHE.esint<3>>, tensor<14x!FHE.esint<3>>) -> tensor<14x!FHE.esint<3>>
    %45 = "FHELinalg.to_signed"(%41) : (tensor<14x!FHE.eint<3>>) -> tensor<14x!FHE.esint<3>>
    %46 = "FHELinalg.mul_eint"(%44, %45) : (tensor<14x!FHE.esint<3>>, tensor<14x!FHE.esint<3>>) -> tensor<14x!FHE.esint<3>>
    %47 = "FHELinalg.to_unsigned"(%46) : (tensor<14x!FHE.esint<3>>) -> tensor<14x!FHE.eint<3>>
    %48 = "FHELinalg.add_eint"(%from_elements_277, %47) : (tensor<14x!FHE.eint<3>>, tensor<14x!FHE.eint<3>>) -> tensor<14x!FHE.eint<3>>
    %49 = "FHELinalg.add_eint"(%from_elements_277, %from_elements_292) : (tensor<14x!FHE.eint<3>>, tensor<14x!FHE.eint<3>>) -> tensor<14x!FHE.eint<3>>
    %50 = "FHELinalg.sub_eint"(%49, %48) : (tensor<14x!FHE.eint<3>>, tensor<14x!FHE.eint<3>>) -> tensor<14x!FHE.eint<3>>
    %extracted_377 = tensor.extract %50[%c0] : tensor<14x!FHE.eint<3>>
    %from_elements_378 = tensor.from_elements %extracted_377 : tensor<1x!FHE.eint<3>>
    %inserted_slice_379 = tensor.insert_slice %from_elements_378 into %inserted_slice_232[0] [1] [1] : tensor<1x!FHE.eint<3>> into tensor<30x!FHE.eint<3>>
    %extracted_380 = tensor.extract %50[%c1] : tensor<14x!FHE.eint<3>>
    %from_elements_381 = tensor.from_elements %extracted_380 : tensor<1x!FHE.eint<3>>
    %inserted_slice_382 = tensor.insert_slice %from_elements_381 into %inserted_slice_379[1] [1] [1] : tensor<1x!FHE.eint<3>> into tensor<30x!FHE.eint<3>>
    %extracted_383 = tensor.extract %50[%c2] : tensor<14x!FHE.eint<3>>
    %from_elements_384 = tensor.from_elements %extracted_383 : tensor<1x!FHE.eint<3>>
    %inserted_slice_385 = tensor.insert_slice %from_elements_384 into %inserted_slice_382[2] [1] [1] : tensor<1x!FHE.eint<3>> into tensor<30x!FHE.eint<3>>
    %extracted_386 = tensor.extract %50[%c3] : tensor<14x!FHE.eint<3>>
    %from_elements_387 = tensor.from_elements %extracted_386 : tensor<1x!FHE.eint<3>>
    %inserted_slice_388 = tensor.insert_slice %from_elements_387 into %inserted_slice_385[3] [1] [1] : tensor<1x!FHE.eint<3>> into tensor<30x!FHE.eint<3>>
    %extracted_389 = tensor.extract %50[%c4] : tensor<14x!FHE.eint<3>>
    %from_elements_390 = tensor.from_elements %extracted_389 : tensor<1x!FHE.eint<3>>
    %inserted_slice_391 = tensor.insert_slice %from_elements_390 into %inserted_slice_388[4] [1] [1] : tensor<1x!FHE.eint<3>> into tensor<30x!FHE.eint<3>>
    %extracted_392 = tensor.extract %50[%c5] : tensor<14x!FHE.eint<3>>
    %from_elements_393 = tensor.from_elements %extracted_392 : tensor<1x!FHE.eint<3>>
    %inserted_slice_394 = tensor.insert_slice %from_elements_393 into %inserted_slice_391[5] [1] [1] : tensor<1x!FHE.eint<3>> into tensor<30x!FHE.eint<3>>
    %extracted_395 = tensor.extract %50[%c6] : tensor<14x!FHE.eint<3>>
    %from_elements_396 = tensor.from_elements %extracted_395 : tensor<1x!FHE.eint<3>>
    %inserted_slice_397 = tensor.insert_slice %from_elements_396 into %inserted_slice_394[6] [1] [1] : tensor<1x!FHE.eint<3>> into tensor<30x!FHE.eint<3>>
    %extracted_398 = tensor.extract %50[%c7] : tensor<14x!FHE.eint<3>>
    %from_elements_399 = tensor.from_elements %extracted_398 : tensor<1x!FHE.eint<3>>
    %inserted_slice_400 = tensor.insert_slice %from_elements_399 into %inserted_slice_397[7] [1] [1] : tensor<1x!FHE.eint<3>> into tensor<30x!FHE.eint<3>>
    %extracted_401 = tensor.extract %50[%c8] : tensor<14x!FHE.eint<3>>
    %from_elements_402 = tensor.from_elements %extracted_401 : tensor<1x!FHE.eint<3>>
    %inserted_slice_403 = tensor.insert_slice %from_elements_402 into %inserted_slice_400[16] [1] [1] : tensor<1x!FHE.eint<3>> into tensor<30x!FHE.eint<3>>
    %extracted_404 = tensor.extract %50[%c9] : tensor<14x!FHE.eint<3>>
    %from_elements_405 = tensor.from_elements %extracted_404 : tensor<1x!FHE.eint<3>>
    %inserted_slice_406 = tensor.insert_slice %from_elements_405 into %inserted_slice_403[17] [1] [1] : tensor<1x!FHE.eint<3>> into tensor<30x!FHE.eint<3>>
    %extracted_407 = tensor.extract %50[%c10] : tensor<14x!FHE.eint<3>>
    %from_elements_408 = tensor.from_elements %extracted_407 : tensor<1x!FHE.eint<3>>
    %inserted_slice_409 = tensor.insert_slice %from_elements_408 into %inserted_slice_406[18] [1] [1] : tensor<1x!FHE.eint<3>> into tensor<30x!FHE.eint<3>>
    %extracted_410 = tensor.extract %50[%c11] : tensor<14x!FHE.eint<3>>
    %from_elements_411 = tensor.from_elements %extracted_410 : tensor<1x!FHE.eint<3>>
    %inserted_slice_412 = tensor.insert_slice %from_elements_411 into %inserted_slice_409[19] [1] [1] : tensor<1x!FHE.eint<3>> into tensor<30x!FHE.eint<3>>
    %extracted_413 = tensor.extract %50[%c12] : tensor<14x!FHE.eint<3>>
    %from_elements_414 = tensor.from_elements %extracted_413 : tensor<1x!FHE.eint<3>>
    %inserted_slice_415 = tensor.insert_slice %from_elements_414 into %inserted_slice_412[20] [1] [1] : tensor<1x!FHE.eint<3>> into tensor<30x!FHE.eint<3>>
    %extracted_416 = tensor.extract %50[%c13] : tensor<14x!FHE.eint<3>>
    %from_elements_417 = tensor.from_elements %extracted_416 : tensor<1x!FHE.eint<3>>
    %inserted_slice_418 = tensor.insert_slice %from_elements_417 into %inserted_slice_415[21] [1] [1] : tensor<1x!FHE.eint<3>> into tensor<30x!FHE.eint<3>>
    %extracted_419 = tensor.extract %48[%c0] : tensor<14x!FHE.eint<3>>
    %from_elements_420 = tensor.from_elements %extracted_419 : tensor<1x!FHE.eint<3>>
    %inserted_slice_421 = tensor.insert_slice %from_elements_420 into %inserted_slice_418[8] [1] [1] : tensor<1x!FHE.eint<3>> into tensor<30x!FHE.eint<3>>
    %extracted_422 = tensor.extract %48[%c1] : tensor<14x!FHE.eint<3>>
    %from_elements_423 = tensor.from_elements %extracted_422 : tensor<1x!FHE.eint<3>>
    %inserted_slice_424 = tensor.insert_slice %from_elements_423 into %inserted_slice_421[9] [1] [1] : tensor<1x!FHE.eint<3>> into tensor<30x!FHE.eint<3>>
    %extracted_425 = tensor.extract %48[%c2] : tensor<14x!FHE.eint<3>>
    %from_elements_426 = tensor.from_elements %extracted_425 : tensor<1x!FHE.eint<3>>
    %inserted_slice_427 = tensor.insert_slice %from_elements_426 into %inserted_slice_424[10] [1] [1] : tensor<1x!FHE.eint<3>> into tensor<30x!FHE.eint<3>>
    %extracted_428 = tensor.extract %48[%c3] : tensor<14x!FHE.eint<3>>
    %from_elements_429 = tensor.from_elements %extracted_428 : tensor<1x!FHE.eint<3>>
    %inserted_slice_430 = tensor.insert_slice %from_elements_429 into %inserted_slice_427[11] [1] [1] : tensor<1x!FHE.eint<3>> into tensor<30x!FHE.eint<3>>
    %extracted_431 = tensor.extract %48[%c4] : tensor<14x!FHE.eint<3>>
    %from_elements_432 = tensor.from_elements %extracted_431 : tensor<1x!FHE.eint<3>>
    %inserted_slice_433 = tensor.insert_slice %from_elements_432 into %inserted_slice_430[12] [1] [1] : tensor<1x!FHE.eint<3>> into tensor<30x!FHE.eint<3>>
    %extracted_434 = tensor.extract %48[%c5] : tensor<14x!FHE.eint<3>>
    %from_elements_435 = tensor.from_elements %extracted_434 : tensor<1x!FHE.eint<3>>
    %inserted_slice_436 = tensor.insert_slice %from_elements_435 into %inserted_slice_433[13] [1] [1] : tensor<1x!FHE.eint<3>> into tensor<30x!FHE.eint<3>>
    %extracted_437 = tensor.extract %48[%c6] : tensor<14x!FHE.eint<3>>
    %from_elements_438 = tensor.from_elements %extracted_437 : tensor<1x!FHE.eint<3>>
    %inserted_slice_439 = tensor.insert_slice %from_elements_438 into %inserted_slice_436[14] [1] [1] : tensor<1x!FHE.eint<3>> into tensor<30x!FHE.eint<3>>
    %extracted_440 = tensor.extract %48[%c7] : tensor<14x!FHE.eint<3>>
    %from_elements_441 = tensor.from_elements %extracted_440 : tensor<1x!FHE.eint<3>>
    %inserted_slice_442 = tensor.insert_slice %from_elements_441 into %inserted_slice_439[15] [1] [1] : tensor<1x!FHE.eint<3>> into tensor<30x!FHE.eint<3>>
    %extracted_443 = tensor.extract %48[%c8] : tensor<14x!FHE.eint<3>>
    %from_elements_444 = tensor.from_elements %extracted_443 : tensor<1x!FHE.eint<3>>
    %inserted_slice_445 = tensor.insert_slice %from_elements_444 into %inserted_slice_442[24] [1] [1] : tensor<1x!FHE.eint<3>> into tensor<30x!FHE.eint<3>>
    %extracted_446 = tensor.extract %48[%c9] : tensor<14x!FHE.eint<3>>
    %from_elements_447 = tensor.from_elements %extracted_446 : tensor<1x!FHE.eint<3>>
    %inserted_slice_448 = tensor.insert_slice %from_elements_447 into %inserted_slice_445[25] [1] [1] : tensor<1x!FHE.eint<3>> into tensor<30x!FHE.eint<3>>
    %extracted_449 = tensor.extract %48[%c10] : tensor<14x!FHE.eint<3>>
    %from_elements_450 = tensor.from_elements %extracted_449 : tensor<1x!FHE.eint<3>>
    %inserted_slice_451 = tensor.insert_slice %from_elements_450 into %inserted_slice_448[26] [1] [1] : tensor<1x!FHE.eint<3>> into tensor<30x!FHE.eint<3>>
    %extracted_452 = tensor.extract %48[%c11] : tensor<14x!FHE.eint<3>>
    %from_elements_453 = tensor.from_elements %extracted_452 : tensor<1x!FHE.eint<3>>
    %inserted_slice_454 = tensor.insert_slice %from_elements_453 into %inserted_slice_451[27] [1] [1] : tensor<1x!FHE.eint<3>> into tensor<30x!FHE.eint<3>>
    %extracted_455 = tensor.extract %48[%c12] : tensor<14x!FHE.eint<3>>
    %from_elements_456 = tensor.from_elements %extracted_455 : tensor<1x!FHE.eint<3>>
    %inserted_slice_457 = tensor.insert_slice %from_elements_456 into %inserted_slice_454[28] [1] [1] : tensor<1x!FHE.eint<3>> into tensor<30x!FHE.eint<3>>
    %extracted_458 = tensor.extract %48[%c13] : tensor<14x!FHE.eint<3>>
    %from_elements_459 = tensor.from_elements %extracted_458 : tensor<1x!FHE.eint<3>>
    %inserted_slice_460 = tensor.insert_slice %from_elements_459 into %inserted_slice_457[29] [1] [1] : tensor<1x!FHE.eint<3>> into tensor<30x!FHE.eint<3>>
    %extracted_461 = tensor.extract %inserted_slice_376[%c8] : tensor<30x!FHE.eint<9>>
    %extracted_462 = tensor.extract %inserted_slice_376[%c9] : tensor<30x!FHE.eint<9>>
    %extracted_463 = tensor.extract %inserted_slice_376[%c10] : tensor<30x!FHE.eint<9>>
    %extracted_464 = tensor.extract %inserted_slice_376[%c11] : tensor<30x!FHE.eint<9>>
    %extracted_465 = tensor.extract %inserted_slice_376[%c12] : tensor<30x!FHE.eint<9>>
    %extracted_466 = tensor.extract %inserted_slice_376[%c13] : tensor<30x!FHE.eint<9>>
    %extracted_467 = tensor.extract %inserted_slice_376[%c14] : tensor<30x!FHE.eint<9>>
    %extracted_468 = tensor.extract %inserted_slice_376[%c15] : tensor<30x!FHE.eint<9>>
    %from_elements_469 = tensor.from_elements %extracted_461, %extracted_462, %extracted_463, %extracted_464, %extracted_465, %extracted_466, %extracted_467, %extracted_468 : tensor<8x!FHE.eint<9>>
    %extracted_470 = tensor.extract %inserted_slice_376[%c16] : tensor<30x!FHE.eint<9>>
    %extracted_471 = tensor.extract %inserted_slice_376[%c17] : tensor<30x!FHE.eint<9>>
    %extracted_472 = tensor.extract %inserted_slice_376[%c18] : tensor<30x!FHE.eint<9>>
    %extracted_473 = tensor.extract %inserted_slice_376[%c19] : tensor<30x!FHE.eint<9>>
    %extracted_474 = tensor.extract %inserted_slice_376[%c20] : tensor<30x!FHE.eint<9>>
    %extracted_475 = tensor.extract %inserted_slice_376[%c21] : tensor<30x!FHE.eint<9>>
    %extracted_476 = tensor.extract %inserted_slice_376[%c22] : tensor<30x!FHE.eint<9>>
    %extracted_477 = tensor.extract %inserted_slice_376[%c23] : tensor<30x!FHE.eint<9>>
    %from_elements_478 = tensor.from_elements %extracted_470, %extracted_471, %extracted_472, %extracted_473, %extracted_474, %extracted_475, %extracted_476, %extracted_477 : tensor<8x!FHE.eint<9>>
    %extracted_479 = tensor.extract %inserted_slice_460[%c8] : tensor<30x!FHE.eint<3>>
    %extracted_480 = tensor.extract %inserted_slice_460[%c9] : tensor<30x!FHE.eint<3>>
    %extracted_481 = tensor.extract %inserted_slice_460[%c10] : tensor<30x!FHE.eint<3>>
    %extracted_482 = tensor.extract %inserted_slice_460[%c11] : tensor<30x!FHE.eint<3>>
    %extracted_483 = tensor.extract %inserted_slice_460[%c12] : tensor<30x!FHE.eint<3>>
    %extracted_484 = tensor.extract %inserted_slice_460[%c13] : tensor<30x!FHE.eint<3>>
    %extracted_485 = tensor.extract %inserted_slice_460[%c14] : tensor<30x!FHE.eint<3>>
    %extracted_486 = tensor.extract %inserted_slice_460[%c15] : tensor<30x!FHE.eint<3>>
    %from_elements_487 = tensor.from_elements %extracted_479, %extracted_480, %extracted_481, %extracted_482, %extracted_483, %extracted_484, %extracted_485, %extracted_486 : tensor<8x!FHE.eint<3>>
    %extracted_488 = tensor.extract %inserted_slice_460[%c16] : tensor<30x!FHE.eint<3>>
    %extracted_489 = tensor.extract %inserted_slice_460[%c17] : tensor<30x!FHE.eint<3>>
    %extracted_490 = tensor.extract %inserted_slice_460[%c18] : tensor<30x!FHE.eint<3>>
    %extracted_491 = tensor.extract %inserted_slice_460[%c19] : tensor<30x!FHE.eint<3>>
    %extracted_492 = tensor.extract %inserted_slice_460[%c20] : tensor<30x!FHE.eint<3>>
    %extracted_493 = tensor.extract %inserted_slice_460[%c21] : tensor<30x!FHE.eint<3>>
    %extracted_494 = tensor.extract %inserted_slice_460[%c22] : tensor<30x!FHE.eint<3>>
    %extracted_495 = tensor.extract %inserted_slice_460[%c23] : tensor<30x!FHE.eint<3>>
    %from_elements_496 = tensor.from_elements %extracted_488, %extracted_489, %extracted_490, %extracted_491, %extracted_492, %extracted_493, %extracted_494, %extracted_495 : tensor<8x!FHE.eint<3>>
    %51 = "FHELinalg.to_signed"(%from_elements_478) : (tensor<8x!FHE.eint<9>>) -> tensor<8x!FHE.esint<9>>
    %52 = "FHELinalg.to_signed"(%from_elements_469) : (tensor<8x!FHE.eint<9>>) -> tensor<8x!FHE.esint<9>>
    %53 = "FHELinalg.sub_eint"(%51, %52) : (tensor<8x!FHE.esint<9>>, tensor<8x!FHE.esint<9>>) -> tensor<8x!FHE.esint<9>>
    %54 = "FHELinalg.mul_eint_int"(%53, %from_elements_2) : (tensor<8x!FHE.esint<9>>, tensor<1xi10>) -> tensor<8x!FHE.esint<9>>
    %55 = "FHELinalg.round"(%54) : (tensor<8x!FHE.esint<9>>) -> tensor<8x!FHE.esint<5>>
    %cst_497 = arith.constant dense<[0, 4, 8, 12, 16, 20, 24, 28, 32, 36, 40, 44, 48, 52, 56, 60, 0, 0, 0, 0, 0, 0, 0, 0, 0, 0, 0, 0, 0, 0, 0, 0]> : tensor<32xi64>
    %56 = "FHELinalg.apply_lookup_table"(%55, %cst_497) : (tensor<8x!FHE.esint<5>>, tensor<32xi64>) -> tensor<8x!FHE.eint<9>>
    %57 = "FHELinalg.add_eint"(%from_elements_469, %56) : (tensor<8x!FHE.eint<9>>, tensor<8x!FHE.eint<9>>) -> tensor<8x!FHE.eint<9>>
    %58 = "FHELinalg.add_eint"(%from_elements_469, %from_elements_478) : (tensor<8x!FHE.eint<9>>, tensor<8x!FHE.eint<9>>) -> tensor<8x!FHE.eint<9>>
    %59 = "FHELinalg.sub_eint"(%58, %57) : (tensor<8x!FHE.eint<9>>, tensor<8x!FHE.eint<9>>) -> tensor<8x!FHE.eint<9>>
    %extracted_498 = tensor.extract %59[%c0] : tensor<8x!FHE.eint<9>>
    %from_elements_499 = tensor.from_elements %extracted_498 : tensor<1x!FHE.eint<9>>
    %inserted_slice_500 = tensor.insert_slice %from_elements_499 into %inserted_slice_376[8] [1] [1] : tensor<1x!FHE.eint<9>> into tensor<30x!FHE.eint<9>>
    %extracted_501 = tensor.extract %59[%c1] : tensor<8x!FHE.eint<9>>
    %from_elements_502 = tensor.from_elements %extracted_501 : tensor<1x!FHE.eint<9>>
    %inserted_slice_503 = tensor.insert_slice %from_elements_502 into %inserted_slice_500[9] [1] [1] : tensor<1x!FHE.eint<9>> into tensor<30x!FHE.eint<9>>
    %extracted_504 = tensor.extract %59[%c2] : tensor<8x!FHE.eint<9>>
    %from_elements_505 = tensor.from_elements %extracted_504 : tensor<1x!FHE.eint<9>>
    %inserted_slice_506 = tensor.insert_slice %from_elements_505 into %inserted_slice_503[10] [1] [1] : tensor<1x!FHE.eint<9>> into tensor<30x!FHE.eint<9>>
    %extracted_507 = tensor.extract %59[%c3] : tensor<8x!FHE.eint<9>>
    %from_elements_508 = tensor.from_elements %extracted_507 : tensor<1x!FHE.eint<9>>
    %inserted_slice_509 = tensor.insert_slice %from_elements_508 into %inserted_slice_506[11] [1] [1] : tensor<1x!FHE.eint<9>> into tensor<30x!FHE.eint<9>>
    %extracted_510 = tensor.extract %59[%c4] : tensor<8x!FHE.eint<9>>
    %from_elements_511 = tensor.from_elements %extracted_510 : tensor<1x!FHE.eint<9>>
    %inserted_slice_512 = tensor.insert_slice %from_elements_511 into %inserted_slice_509[12] [1] [1] : tensor<1x!FHE.eint<9>> into tensor<30x!FHE.eint<9>>
    %extracted_513 = tensor.extract %59[%c5] : tensor<8x!FHE.eint<9>>
    %from_elements_514 = tensor.from_elements %extracted_513 : tensor<1x!FHE.eint<9>>
    %inserted_slice_515 = tensor.insert_slice %from_elements_514 into %inserted_slice_512[13] [1] [1] : tensor<1x!FHE.eint<9>> into tensor<30x!FHE.eint<9>>
    %extracted_516 = tensor.extract %59[%c6] : tensor<8x!FHE.eint<9>>
    %from_elements_517 = tensor.from_elements %extracted_516 : tensor<1x!FHE.eint<9>>
    %inserted_slice_518 = tensor.insert_slice %from_elements_517 into %inserted_slice_515[14] [1] [1] : tensor<1x!FHE.eint<9>> into tensor<30x!FHE.eint<9>>
    %extracted_519 = tensor.extract %59[%c7] : tensor<8x!FHE.eint<9>>
    %from_elements_520 = tensor.from_elements %extracted_519 : tensor<1x!FHE.eint<9>>
    %inserted_slice_521 = tensor.insert_slice %from_elements_520 into %inserted_slice_518[15] [1] [1] : tensor<1x!FHE.eint<9>> into tensor<30x!FHE.eint<9>>
    %extracted_522 = tensor.extract %57[%c0] : tensor<8x!FHE.eint<9>>
    %from_elements_523 = tensor.from_elements %extracted_522 : tensor<1x!FHE.eint<9>>
    %inserted_slice_524 = tensor.insert_slice %from_elements_523 into %inserted_slice_521[16] [1] [1] : tensor<1x!FHE.eint<9>> into tensor<30x!FHE.eint<9>>
    %extracted_525 = tensor.extract %57[%c1] : tensor<8x!FHE.eint<9>>
    %from_elements_526 = tensor.from_elements %extracted_525 : tensor<1x!FHE.eint<9>>
    %inserted_slice_527 = tensor.insert_slice %from_elements_526 into %inserted_slice_524[17] [1] [1] : tensor<1x!FHE.eint<9>> into tensor<30x!FHE.eint<9>>
    %extracted_528 = tensor.extract %57[%c2] : tensor<8x!FHE.eint<9>>
    %from_elements_529 = tensor.from_elements %extracted_528 : tensor<1x!FHE.eint<9>>
    %inserted_slice_530 = tensor.insert_slice %from_elements_529 into %inserted_slice_527[18] [1] [1] : tensor<1x!FHE.eint<9>> into tensor<30x!FHE.eint<9>>
    %extracted_531 = tensor.extract %57[%c3] : tensor<8x!FHE.eint<9>>
    %from_elements_532 = tensor.from_elements %extracted_531 : tensor<1x!FHE.eint<9>>
    %inserted_slice_533 = tensor.insert_slice %from_elements_532 into %inserted_slice_530[19] [1] [1] : tensor<1x!FHE.eint<9>> into tensor<30x!FHE.eint<9>>
    %extracted_534 = tensor.extract %57[%c4] : tensor<8x!FHE.eint<9>>
    %from_elements_535 = tensor.from_elements %extracted_534 : tensor<1x!FHE.eint<9>>
    %inserted_slice_536 = tensor.insert_slice %from_elements_535 into %inserted_slice_533[20] [1] [1] : tensor<1x!FHE.eint<9>> into tensor<30x!FHE.eint<9>>
    %extracted_537 = tensor.extract %57[%c5] : tensor<8x!FHE.eint<9>>
    %from_elements_538 = tensor.from_elements %extracted_537 : tensor<1x!FHE.eint<9>>
    %inserted_slice_539 = tensor.insert_slice %from_elements_538 into %inserted_slice_536[21] [1] [1] : tensor<1x!FHE.eint<9>> into tensor<30x!FHE.eint<9>>
    %extracted_540 = tensor.extract %57[%c6] : tensor<8x!FHE.eint<9>>
    %from_elements_541 = tensor.from_elements %extracted_540 : tensor<1x!FHE.eint<9>>
    %inserted_slice_542 = tensor.insert_slice %from_elements_541 into %inserted_slice_539[22] [1] [1] : tensor<1x!FHE.eint<9>> into tensor<30x!FHE.eint<9>>
    %extracted_543 = tensor.extract %57[%c7] : tensor<8x!FHE.eint<9>>
    %from_elements_544 = tensor.from_elements %extracted_543 : tensor<1x!FHE.eint<9>>
    %inserted_slice_545 = tensor.insert_slice %from_elements_544 into %inserted_slice_542[23] [1] [1] : tensor<1x!FHE.eint<9>> into tensor<30x!FHE.eint<9>>
    %cst_546 = arith.constant dense<[0, 1, 1, 1, 1, 1, 1, 1, 1, 1, 1, 1, 1, 1, 1, 1, 0, 0, 0, 0, 0, 0, 0, 0, 0, 0, 0, 0, 0, 0, 0, 0]> : tensor<32xi64>
    %60 = "FHELinalg.apply_lookup_table"(%55, %cst_546) : (tensor<8x!FHE.esint<5>>, tensor<32xi64>) -> tensor<8x!FHE.eint<3>>
    %61 = "FHELinalg.to_signed"(%from_elements_496) : (tensor<8x!FHE.eint<3>>) -> tensor<8x!FHE.esint<3>>
    %62 = "FHELinalg.to_signed"(%from_elements_487) : (tensor<8x!FHE.eint<3>>) -> tensor<8x!FHE.esint<3>>
    %63 = "FHELinalg.sub_eint"(%61, %62) : (tensor<8x!FHE.esint<3>>, tensor<8x!FHE.esint<3>>) -> tensor<8x!FHE.esint<3>>
    %64 = "FHELinalg.to_signed"(%60) : (tensor<8x!FHE.eint<3>>) -> tensor<8x!FHE.esint<3>>
    %65 = "FHELinalg.mul_eint"(%63, %64) : (tensor<8x!FHE.esint<3>>, tensor<8x!FHE.esint<3>>) -> tensor<8x!FHE.esint<3>>
    %66 = "FHELinalg.to_unsigned"(%65) : (tensor<8x!FHE.esint<3>>) -> tensor<8x!FHE.eint<3>>
    %67 = "FHELinalg.add_eint"(%from_elements_487, %66) : (tensor<8x!FHE.eint<3>>, tensor<8x!FHE.eint<3>>) -> tensor<8x!FHE.eint<3>>
    %68 = "FHELinalg.add_eint"(%from_elements_487, %from_elements_496) : (tensor<8x!FHE.eint<3>>, tensor<8x!FHE.eint<3>>) -> tensor<8x!FHE.eint<3>>
    %69 = "FHELinalg.sub_eint"(%68, %67) : (tensor<8x!FHE.eint<3>>, tensor<8x!FHE.eint<3>>) -> tensor<8x!FHE.eint<3>>
    %extracted_547 = tensor.extract %69[%c0] : tensor<8x!FHE.eint<3>>
    %from_elements_548 = tensor.from_elements %extracted_547 : tensor<1x!FHE.eint<3>>
    %inserted_slice_549 = tensor.insert_slice %from_elements_548 into %inserted_slice_460[8] [1] [1] : tensor<1x!FHE.eint<3>> into tensor<30x!FHE.eint<3>>
    %extracted_550 = tensor.extract %69[%c1] : tensor<8x!FHE.eint<3>>
    %from_elements_551 = tensor.from_elements %extracted_550 : tensor<1x!FHE.eint<3>>
    %inserted_slice_552 = tensor.insert_slice %from_elements_551 into %inserted_slice_549[9] [1] [1] : tensor<1x!FHE.eint<3>> into tensor<30x!FHE.eint<3>>
    %extracted_553 = tensor.extract %69[%c2] : tensor<8x!FHE.eint<3>>
    %from_elements_554 = tensor.from_elements %extracted_553 : tensor<1x!FHE.eint<3>>
    %inserted_slice_555 = tensor.insert_slice %from_elements_554 into %inserted_slice_552[10] [1] [1] : tensor<1x!FHE.eint<3>> into tensor<30x!FHE.eint<3>>
    %extracted_556 = tensor.extract %69[%c3] : tensor<8x!FHE.eint<3>>
    %from_elements_557 = tensor.from_elements %extracted_556 : tensor<1x!FHE.eint<3>>
    %inserted_slice_558 = tensor.insert_slice %from_elements_557 into %inserted_slice_555[11] [1] [1] : tensor<1x!FHE.eint<3>> into tensor<30x!FHE.eint<3>>
    %extracted_559 = tensor.extract %69[%c4] : tensor<8x!FHE.eint<3>>
    %from_elements_560 = tensor.from_elements %extracted_559 : tensor<1x!FHE.eint<3>>
    %inserted_slice_561 = tensor.insert_slice %from_elements_560 into %inserted_slice_558[12] [1] [1] : tensor<1x!FHE.eint<3>> into tensor<30x!FHE.eint<3>>
    %extracted_562 = tensor.extract %69[%c5] : tensor<8x!FHE.eint<3>>
    %from_elements_563 = tensor.from_elements %extracted_562 : tensor<1x!FHE.eint<3>>
    %inserted_slice_564 = tensor.insert_slice %from_elements_563 into %inserted_slice_561[13] [1] [1] : tensor<1x!FHE.eint<3>> into tensor<30x!FHE.eint<3>>
    %extracted_565 = tensor.extract %69[%c6] : tensor<8x!FHE.eint<3>>
    %from_elements_566 = tensor.from_elements %extracted_565 : tensor<1x!FHE.eint<3>>
    %inserted_slice_567 = tensor.insert_slice %from_elements_566 into %inserted_slice_564[14] [1] [1] : tensor<1x!FHE.eint<3>> into tensor<30x!FHE.eint<3>>
    %extracted_568 = tensor.extract %69[%c7] : tensor<8x!FHE.eint<3>>
    %from_elements_569 = tensor.from_elements %extracted_568 : tensor<1x!FHE.eint<3>>
    %inserted_slice_570 = tensor.insert_slice %from_elements_569 into %inserted_slice_567[15] [1] [1] : tensor<1x!FHE.eint<3>> into tensor<30x!FHE.eint<3>>
    %extracted_571 = tensor.extract %67[%c0] : tensor<8x!FHE.eint<3>>
    %from_elements_572 = tensor.from_elements %extracted_571 : tensor<1x!FHE.eint<3>>
    %inserted_slice_573 = tensor.insert_slice %from_elements_572 into %inserted_slice_570[16] [1] [1] : tensor<1x!FHE.eint<3>> into tensor<30x!FHE.eint<3>>
    %extracted_574 = tensor.extract %67[%c1] : tensor<8x!FHE.eint<3>>
    %from_elements_575 = tensor.from_elements %extracted_574 : tensor<1x!FHE.eint<3>>
    %inserted_slice_576 = tensor.insert_slice %from_elements_575 into %inserted_slice_573[17] [1] [1] : tensor<1x!FHE.eint<3>> into tensor<30x!FHE.eint<3>>
    %extracted_577 = tensor.extract %67[%c2] : tensor<8x!FHE.eint<3>>
    %from_elements_578 = tensor.from_elements %extracted_577 : tensor<1x!FHE.eint<3>>
    %inserted_slice_579 = tensor.insert_slice %from_elements_578 into %inserted_slice_576[18] [1] [1] : tensor<1x!FHE.eint<3>> into tensor<30x!FHE.eint<3>>
    %extracted_580 = tensor.extract %67[%c3] : tensor<8x!FHE.eint<3>>
    %from_elements_581 = tensor.from_elements %extracted_580 : tensor<1x!FHE.eint<3>>
    %inserted_slice_582 = tensor.insert_slice %from_elements_581 into %inserted_slice_579[19] [1] [1] : tensor<1x!FHE.eint<3>> into tensor<30x!FHE.eint<3>>
    %extracted_583 = tensor.extract %67[%c4] : tensor<8x!FHE.eint<3>>
    %from_elements_584 = tensor.from_elements %extracted_583 : tensor<1x!FHE.eint<3>>
    %inserted_slice_585 = tensor.insert_slice %from_elements_584 into %inserted_slice_582[20] [1] [1] : tensor<1x!FHE.eint<3>> into tensor<30x!FHE.eint<3>>
    %extracted_586 = tensor.extract %67[%c5] : tensor<8x!FHE.eint<3>>
    %from_elements_587 = tensor.from_elements %extracted_586 : tensor<1x!FHE.eint<3>>
    %inserted_slice_588 = tensor.insert_slice %from_elements_587 into %inserted_slice_585[21] [1] [1] : tensor<1x!FHE.eint<3>> into tensor<30x!FHE.eint<3>>
    %extracted_589 = tensor.extract %67[%c6] : tensor<8x!FHE.eint<3>>
    %from_elements_590 = tensor.from_elements %extracted_589 : tensor<1x!FHE.eint<3>>
    %inserted_slice_591 = tensor.insert_slice %from_elements_590 into %inserted_slice_588[22] [1] [1] : tensor<1x!FHE.eint<3>> into tensor<30x!FHE.eint<3>>
    %extracted_592 = tensor.extract %67[%c7] : tensor<8x!FHE.eint<3>>
    %from_elements_593 = tensor.from_elements %extracted_592 : tensor<1x!FHE.eint<3>>
    %inserted_slice_594 = tensor.insert_slice %from_elements_593 into %inserted_slice_591[23] [1] [1] : tensor<1x!FHE.eint<3>> into tensor<30x!FHE.eint<3>>
    %extracted_595 = tensor.extract %inserted_slice_545[%c0] : tensor<30x!FHE.eint<9>>
    %extracted_596 = tensor.extract %inserted_slice_545[%c1] : tensor<30x!FHE.eint<9>>
    %extracted_597 = tensor.extract %inserted_slice_545[%c2] : tensor<30x!FHE.eint<9>>
    %extracted_598 = tensor.extract %inserted_slice_545[%c3] : tensor<30x!FHE.eint<9>>
    %extracted_599 = tensor.extract %inserted_slice_545[%c8] : tensor<30x!FHE.eint<9>>
    %extracted_600 = tensor.extract %inserted_slice_545[%c9] : tensor<30x!FHE.eint<9>>
    %extracted_601 = tensor.extract %inserted_slice_545[%c10] : tensor<30x!FHE.eint<9>>
    %extracted_602 = tensor.extract %inserted_slice_545[%c11] : tensor<30x!FHE.eint<9>>
    %extracted_603 = tensor.extract %inserted_slice_545[%c16] : tensor<30x!FHE.eint<9>>
    %extracted_604 = tensor.extract %inserted_slice_545[%c17] : tensor<30x!FHE.eint<9>>
    %extracted_605 = tensor.extract %inserted_slice_545[%c18] : tensor<30x!FHE.eint<9>>
    %extracted_606 = tensor.extract %inserted_slice_545[%c19] : tensor<30x!FHE.eint<9>>
    %extracted_607 = tensor.extract %inserted_slice_545[%c24] : tensor<30x!FHE.eint<9>>
    %extracted_608 = tensor.extract %inserted_slice_545[%c25] : tensor<30x!FHE.eint<9>>
    %from_elements_609 = tensor.from_elements %extracted_595, %extracted_596, %extracted_597, %extracted_598, %extracted_599, %extracted_600, %extracted_601, %extracted_602, %extracted_603, %extracted_604, %extracted_605, %extracted_606, %extracted_607, %extracted_608 : tensor<14x!FHE.eint<9>>
    %extracted_610 = tensor.extract %inserted_slice_545[%c4] : tensor<30x!FHE.eint<9>>
    %extracted_611 = tensor.extract %inserted_slice_545[%c5] : tensor<30x!FHE.eint<9>>
    %extracted_612 = tensor.extract %inserted_slice_545[%c6] : tensor<30x!FHE.eint<9>>
    %extracted_613 = tensor.extract %inserted_slice_545[%c7] : tensor<30x!FHE.eint<9>>
    %extracted_614 = tensor.extract %inserted_slice_545[%c12] : tensor<30x!FHE.eint<9>>
    %extracted_615 = tensor.extract %inserted_slice_545[%c13] : tensor<30x!FHE.eint<9>>
    %extracted_616 = tensor.extract %inserted_slice_545[%c14] : tensor<30x!FHE.eint<9>>
    %extracted_617 = tensor.extract %inserted_slice_545[%c15] : tensor<30x!FHE.eint<9>>
    %extracted_618 = tensor.extract %inserted_slice_545[%c20] : tensor<30x!FHE.eint<9>>
    %extracted_619 = tensor.extract %inserted_slice_545[%c21] : tensor<30x!FHE.eint<9>>
    %extracted_620 = tensor.extract %inserted_slice_545[%c22] : tensor<30x!FHE.eint<9>>
    %extracted_621 = tensor.extract %inserted_slice_545[%c23] : tensor<30x!FHE.eint<9>>
    %extracted_622 = tensor.extract %inserted_slice_545[%c28] : tensor<30x!FHE.eint<9>>
    %extracted_623 = tensor.extract %inserted_slice_545[%c29] : tensor<30x!FHE.eint<9>>
    %from_elements_624 = tensor.from_elements %extracted_610, %extracted_611, %extracted_612, %extracted_613, %extracted_614, %extracted_615, %extracted_616, %extracted_617, %extracted_618, %extracted_619, %extracted_620, %extracted_621, %extracted_622, %extracted_623 : tensor<14x!FHE.eint<9>>
    %extracted_625 = tensor.extract %inserted_slice_594[%c0] : tensor<30x!FHE.eint<3>>
    %extracted_626 = tensor.extract %inserted_slice_594[%c1] : tensor<30x!FHE.eint<3>>
    %extracted_627 = tensor.extract %inserted_slice_594[%c2] : tensor<30x!FHE.eint<3>>
    %extracted_628 = tensor.extract %inserted_slice_594[%c3] : tensor<30x!FHE.eint<3>>
    %extracted_629 = tensor.extract %inserted_slice_594[%c8] : tensor<30x!FHE.eint<3>>
    %extracted_630 = tensor.extract %inserted_slice_594[%c9] : tensor<30x!FHE.eint<3>>
    %extracted_631 = tensor.extract %inserted_slice_594[%c10] : tensor<30x!FHE.eint<3>>
    %extracted_632 = tensor.extract %inserted_slice_594[%c11] : tensor<30x!FHE.eint<3>>
    %extracted_633 = tensor.extract %inserted_slice_594[%c16] : tensor<30x!FHE.eint<3>>
    %extracted_634 = tensor.extract %inserted_slice_594[%c17] : tensor<30x!FHE.eint<3>>
    %extracted_635 = tensor.extract %inserted_slice_594[%c18] : tensor<30x!FHE.eint<3>>
    %extracted_636 = tensor.extract %inserted_slice_594[%c19] : tensor<30x!FHE.eint<3>>
    %extracted_637 = tensor.extract %inserted_slice_594[%c24] : tensor<30x!FHE.eint<3>>
    %extracted_638 = tensor.extract %inserted_slice_594[%c25] : tensor<30x!FHE.eint<3>>
    %from_elements_639 = tensor.from_elements %extracted_625, %extracted_626, %extracted_627, %extracted_628, %extracted_629, %extracted_630, %extracted_631, %extracted_632, %extracted_633, %extracted_634, %extracted_635, %extracted_636, %extracted_637, %extracted_638 : tensor<14x!FHE.eint<3>>
    %extracted_640 = tensor.extract %inserted_slice_594[%c4] : tensor<30x!FHE.eint<3>>
    %extracted_641 = tensor.extract %inserted_slice_594[%c5] : tensor<30x!FHE.eint<3>>
    %extracted_642 = tensor.extract %inserted_slice_594[%c6] : tensor<30x!FHE.eint<3>>
    %extracted_643 = tensor.extract %inserted_slice_594[%c7] : tensor<30x!FHE.eint<3>>
    %extracted_644 = tensor.extract %inserted_slice_594[%c12] : tensor<30x!FHE.eint<3>>
    %extracted_645 = tensor.extract %inserted_slice_594[%c13] : tensor<30x!FHE.eint<3>>
    %extracted_646 = tensor.extract %inserted_slice_594[%c14] : tensor<30x!FHE.eint<3>>
    %extracted_647 = tensor.extract %inserted_slice_594[%c15] : tensor<30x!FHE.eint<3>>
    %extracted_648 = tensor.extract %inserted_slice_594[%c20] : tensor<30x!FHE.eint<3>>
    %extracted_649 = tensor.extract %inserted_slice_594[%c21] : tensor<30x!FHE.eint<3>>
    %extracted_650 = tensor.extract %inserted_slice_594[%c22] : tensor<30x!FHE.eint<3>>
    %extracted_651 = tensor.extract %inserted_slice_594[%c23] : tensor<30x!FHE.eint<3>>
    %extracted_652 = tensor.extract %inserted_slice_594[%c28] : tensor<30x!FHE.eint<3>>
    %extracted_653 = tensor.extract %inserted_slice_594[%c29] : tensor<30x!FHE.eint<3>>
    %from_elements_654 = tensor.from_elements %extracted_640, %extracted_641, %extracted_642, %extracted_643, %extracted_644, %extracted_645, %extracted_646, %extracted_647, %extracted_648, %extracted_649, %extracted_650, %extracted_651, %extracted_652, %extracted_653 : tensor<14x!FHE.eint<3>>
    %70 = "FHELinalg.to_signed"(%from_elements_624) : (tensor<14x!FHE.eint<9>>) -> tensor<14x!FHE.esint<9>>
    %71 = "FHELinalg.to_signed"(%from_elements_609) : (tensor<14x!FHE.eint<9>>) -> tensor<14x!FHE.esint<9>>
    %72 = "FHELinalg.sub_eint"(%70, %71) : (tensor<14x!FHE.esint<9>>, tensor<14x!FHE.esint<9>>) -> tensor<14x!FHE.esint<9>>
    %73 = "FHELinalg.mul_eint_int"(%72, %from_elements) : (tensor<14x!FHE.esint<9>>, tensor<1xi10>) -> tensor<14x!FHE.esint<9>>
    %74 = "FHELinalg.round"(%73) : (tensor<14x!FHE.esint<9>>) -> tensor<14x!FHE.esint<6>>
    %75 = "FHELinalg.apply_lookup_table"(%74, %cst_64) : (tensor<14x!FHE.esint<6>>, tensor<64xi64>) -> tensor<14x!FHE.eint<9>>
    %76 = "FHELinalg.add_eint"(%from_elements_609, %75) : (tensor<14x!FHE.eint<9>>, tensor<14x!FHE.eint<9>>) -> tensor<14x!FHE.eint<9>>
    %77 = "FHELinalg.add_eint"(%from_elements_609, %from_elements_624) : (tensor<14x!FHE.eint<9>>, tensor<14x!FHE.eint<9>>) -> tensor<14x!FHE.eint<9>>
    %78 = "FHELinalg.sub_eint"(%77, %76) : (tensor<14x!FHE.eint<9>>, tensor<14x!FHE.eint<9>>) -> tensor<14x!FHE.eint<9>>
    %extracted_655 = tensor.extract %78[%c0] : tensor<14x!FHE.eint<9>>
    %from_elements_656 = tensor.from_elements %extracted_655 : tensor<1x!FHE.eint<9>>
    %inserted_slice_657 = tensor.insert_slice %from_elements_656 into %inserted_slice_545[0] [1] [1] : tensor<1x!FHE.eint<9>> into tensor<30x!FHE.eint<9>>
    %extracted_658 = tensor.extract %78[%c1] : tensor<14x!FHE.eint<9>>
    %from_elements_659 = tensor.from_elements %extracted_658 : tensor<1x!FHE.eint<9>>
    %inserted_slice_660 = tensor.insert_slice %from_elements_659 into %inserted_slice_657[1] [1] [1] : tensor<1x!FHE.eint<9>> into tensor<30x!FHE.eint<9>>
    %extracted_661 = tensor.extract %78[%c2] : tensor<14x!FHE.eint<9>>
    %from_elements_662 = tensor.from_elements %extracted_661 : tensor<1x!FHE.eint<9>>
    %inserted_slice_663 = tensor.insert_slice %from_elements_662 into %inserted_slice_660[2] [1] [1] : tensor<1x!FHE.eint<9>> into tensor<30x!FHE.eint<9>>
    %extracted_664 = tensor.extract %78[%c3] : tensor<14x!FHE.eint<9>>
    %from_elements_665 = tensor.from_elements %extracted_664 : tensor<1x!FHE.eint<9>>
    %inserted_slice_666 = tensor.insert_slice %from_elements_665 into %inserted_slice_663[3] [1] [1] : tensor<1x!FHE.eint<9>> into tensor<30x!FHE.eint<9>>
    %extracted_667 = tensor.extract %78[%c4] : tensor<14x!FHE.eint<9>>
    %from_elements_668 = tensor.from_elements %extracted_667 : tensor<1x!FHE.eint<9>>
    %inserted_slice_669 = tensor.insert_slice %from_elements_668 into %inserted_slice_666[8] [1] [1] : tensor<1x!FHE.eint<9>> into tensor<30x!FHE.eint<9>>
    %extracted_670 = tensor.extract %78[%c5] : tensor<14x!FHE.eint<9>>
    %from_elements_671 = tensor.from_elements %extracted_670 : tensor<1x!FHE.eint<9>>
    %inserted_slice_672 = tensor.insert_slice %from_elements_671 into %inserted_slice_669[9] [1] [1] : tensor<1x!FHE.eint<9>> into tensor<30x!FHE.eint<9>>
    %extracted_673 = tensor.extract %78[%c6] : tensor<14x!FHE.eint<9>>
    %from_elements_674 = tensor.from_elements %extracted_673 : tensor<1x!FHE.eint<9>>
    %inserted_slice_675 = tensor.insert_slice %from_elements_674 into %inserted_slice_672[10] [1] [1] : tensor<1x!FHE.eint<9>> into tensor<30x!FHE.eint<9>>
    %extracted_676 = tensor.extract %78[%c7] : tensor<14x!FHE.eint<9>>
    %from_elements_677 = tensor.from_elements %extracted_676 : tensor<1x!FHE.eint<9>>
    %inserted_slice_678 = tensor.insert_slice %from_elements_677 into %inserted_slice_675[11] [1] [1] : tensor<1x!FHE.eint<9>> into tensor<30x!FHE.eint<9>>
    %extracted_679 = tensor.extract %78[%c8] : tensor<14x!FHE.eint<9>>
    %from_elements_680 = tensor.from_elements %extracted_679 : tensor<1x!FHE.eint<9>>
    %inserted_slice_681 = tensor.insert_slice %from_elements_680 into %inserted_slice_678[16] [1] [1] : tensor<1x!FHE.eint<9>> into tensor<30x!FHE.eint<9>>
    %extracted_682 = tensor.extract %78[%c9] : tensor<14x!FHE.eint<9>>
    %from_elements_683 = tensor.from_elements %extracted_682 : tensor<1x!FHE.eint<9>>
    %inserted_slice_684 = tensor.insert_slice %from_elements_683 into %inserted_slice_681[17] [1] [1] : tensor<1x!FHE.eint<9>> into tensor<30x!FHE.eint<9>>
    %extracted_685 = tensor.extract %78[%c10] : tensor<14x!FHE.eint<9>>
    %from_elements_686 = tensor.from_elements %extracted_685 : tensor<1x!FHE.eint<9>>
    %inserted_slice_687 = tensor.insert_slice %from_elements_686 into %inserted_slice_684[18] [1] [1] : tensor<1x!FHE.eint<9>> into tensor<30x!FHE.eint<9>>
    %extracted_688 = tensor.extract %78[%c11] : tensor<14x!FHE.eint<9>>
    %from_elements_689 = tensor.from_elements %extracted_688 : tensor<1x!FHE.eint<9>>
    %inserted_slice_690 = tensor.insert_slice %from_elements_689 into %inserted_slice_687[19] [1] [1] : tensor<1x!FHE.eint<9>> into tensor<30x!FHE.eint<9>>
    %extracted_691 = tensor.extract %78[%c12] : tensor<14x!FHE.eint<9>>
    %from_elements_692 = tensor.from_elements %extracted_691 : tensor<1x!FHE.eint<9>>
    %inserted_slice_693 = tensor.insert_slice %from_elements_692 into %inserted_slice_690[24] [1] [1] : tensor<1x!FHE.eint<9>> into tensor<30x!FHE.eint<9>>
    %extracted_694 = tensor.extract %78[%c13] : tensor<14x!FHE.eint<9>>
    %from_elements_695 = tensor.from_elements %extracted_694 : tensor<1x!FHE.eint<9>>
    %inserted_slice_696 = tensor.insert_slice %from_elements_695 into %inserted_slice_693[25] [1] [1] : tensor<1x!FHE.eint<9>> into tensor<30x!FHE.eint<9>>
    %extracted_697 = tensor.extract %76[%c0] : tensor<14x!FHE.eint<9>>
    %from_elements_698 = tensor.from_elements %extracted_697 : tensor<1x!FHE.eint<9>>
    %inserted_slice_699 = tensor.insert_slice %from_elements_698 into %inserted_slice_696[4] [1] [1] : tensor<1x!FHE.eint<9>> into tensor<30x!FHE.eint<9>>
    %extracted_700 = tensor.extract %76[%c1] : tensor<14x!FHE.eint<9>>
    %from_elements_701 = tensor.from_elements %extracted_700 : tensor<1x!FHE.eint<9>>
    %inserted_slice_702 = tensor.insert_slice %from_elements_701 into %inserted_slice_699[5] [1] [1] : tensor<1x!FHE.eint<9>> into tensor<30x!FHE.eint<9>>
    %extracted_703 = tensor.extract %76[%c2] : tensor<14x!FHE.eint<9>>
    %from_elements_704 = tensor.from_elements %extracted_703 : tensor<1x!FHE.eint<9>>
    %inserted_slice_705 = tensor.insert_slice %from_elements_704 into %inserted_slice_702[6] [1] [1] : tensor<1x!FHE.eint<9>> into tensor<30x!FHE.eint<9>>
    %extracted_706 = tensor.extract %76[%c3] : tensor<14x!FHE.eint<9>>
    %from_elements_707 = tensor.from_elements %extracted_706 : tensor<1x!FHE.eint<9>>
    %inserted_slice_708 = tensor.insert_slice %from_elements_707 into %inserted_slice_705[7] [1] [1] : tensor<1x!FHE.eint<9>> into tensor<30x!FHE.eint<9>>
    %extracted_709 = tensor.extract %76[%c4] : tensor<14x!FHE.eint<9>>
    %from_elements_710 = tensor.from_elements %extracted_709 : tensor<1x!FHE.eint<9>>
    %inserted_slice_711 = tensor.insert_slice %from_elements_710 into %inserted_slice_708[12] [1] [1] : tensor<1x!FHE.eint<9>> into tensor<30x!FHE.eint<9>>
    %extracted_712 = tensor.extract %76[%c5] : tensor<14x!FHE.eint<9>>
    %from_elements_713 = tensor.from_elements %extracted_712 : tensor<1x!FHE.eint<9>>
    %inserted_slice_714 = tensor.insert_slice %from_elements_713 into %inserted_slice_711[13] [1] [1] : tensor<1x!FHE.eint<9>> into tensor<30x!FHE.eint<9>>
    %extracted_715 = tensor.extract %76[%c6] : tensor<14x!FHE.eint<9>>
    %from_elements_716 = tensor.from_elements %extracted_715 : tensor<1x!FHE.eint<9>>
    %inserted_slice_717 = tensor.insert_slice %from_elements_716 into %inserted_slice_714[14] [1] [1] : tensor<1x!FHE.eint<9>> into tensor<30x!FHE.eint<9>>
    %extracted_718 = tensor.extract %76[%c7] : tensor<14x!FHE.eint<9>>
    %from_elements_719 = tensor.from_elements %extracted_718 : tensor<1x!FHE.eint<9>>
    %inserted_slice_720 = tensor.insert_slice %from_elements_719 into %inserted_slice_717[15] [1] [1] : tensor<1x!FHE.eint<9>> into tensor<30x!FHE.eint<9>>
    %extracted_721 = tensor.extract %76[%c8] : tensor<14x!FHE.eint<9>>
    %from_elements_722 = tensor.from_elements %extracted_721 : tensor<1x!FHE.eint<9>>
    %inserted_slice_723 = tensor.insert_slice %from_elements_722 into %inserted_slice_720[20] [1] [1] : tensor<1x!FHE.eint<9>> into tensor<30x!FHE.eint<9>>
    %extracted_724 = tensor.extract %76[%c9] : tensor<14x!FHE.eint<9>>
    %from_elements_725 = tensor.from_elements %extracted_724 : tensor<1x!FHE.eint<9>>
    %inserted_slice_726 = tensor.insert_slice %from_elements_725 into %inserted_slice_723[21] [1] [1] : tensor<1x!FHE.eint<9>> into tensor<30x!FHE.eint<9>>
    %extracted_727 = tensor.extract %76[%c10] : tensor<14x!FHE.eint<9>>
    %from_elements_728 = tensor.from_elements %extracted_727 : tensor<1x!FHE.eint<9>>
    %inserted_slice_729 = tensor.insert_slice %from_elements_728 into %inserted_slice_726[22] [1] [1] : tensor<1x!FHE.eint<9>> into tensor<30x!FHE.eint<9>>
    %extracted_730 = tensor.extract %76[%c11] : tensor<14x!FHE.eint<9>>
    %from_elements_731 = tensor.from_elements %extracted_730 : tensor<1x!FHE.eint<9>>
    %inserted_slice_732 = tensor.insert_slice %from_elements_731 into %inserted_slice_729[23] [1] [1] : tensor<1x!FHE.eint<9>> into tensor<30x!FHE.eint<9>>
    %extracted_733 = tensor.extract %76[%c12] : tensor<14x!FHE.eint<9>>
    %from_elements_734 = tensor.from_elements %extracted_733 : tensor<1x!FHE.eint<9>>
    %inserted_slice_735 = tensor.insert_slice %from_elements_734 into %inserted_slice_732[28] [1] [1] : tensor<1x!FHE.eint<9>> into tensor<30x!FHE.eint<9>>
    %extracted_736 = tensor.extract %76[%c13] : tensor<14x!FHE.eint<9>>
    %from_elements_737 = tensor.from_elements %extracted_736 : tensor<1x!FHE.eint<9>>
    %inserted_slice_738 = tensor.insert_slice %from_elements_737 into %inserted_slice_735[29] [1] [1] : tensor<1x!FHE.eint<9>> into tensor<30x!FHE.eint<9>>
    %79 = "FHELinalg.apply_lookup_table"(%74, %cst_148) : (tensor<14x!FHE.esint<6>>, tensor<64xi64>) -> tensor<14x!FHE.eint<3>>
    %80 = "FHELinalg.to_signed"(%from_elements_654) : (tensor<14x!FHE.eint<3>>) -> tensor<14x!FHE.esint<3>>
    %81 = "FHELinalg.to_signed"(%from_elements_639) : (tensor<14x!FHE.eint<3>>) -> tensor<14x!FHE.esint<3>>
    %82 = "FHELinalg.sub_eint"(%80, %81) : (tensor<14x!FHE.esint<3>>, tensor<14x!FHE.esint<3>>) -> tensor<14x!FHE.esint<3>>
    %83 = "FHELinalg.to_signed"(%79) : (tensor<14x!FHE.eint<3>>) -> tensor<14x!FHE.esint<3>>
    %84 = "FHELinalg.mul_eint"(%82, %83) : (tensor<14x!FHE.esint<3>>, tensor<14x!FHE.esint<3>>) -> tensor<14x!FHE.esint<3>>
    %85 = "FHELinalg.to_unsigned"(%84) : (tensor<14x!FHE.esint<3>>) -> tensor<14x!FHE.eint<3>>
    %86 = "FHELinalg.add_eint"(%from_elements_639, %85) : (tensor<14x!FHE.eint<3>>, tensor<14x!FHE.eint<3>>) -> tensor<14x!FHE.eint<3>>
    %87 = "FHELinalg.add_eint"(%from_elements_639, %from_elements_654) : (tensor<14x!FHE.eint<3>>, tensor<14x!FHE.eint<3>>) -> tensor<14x!FHE.eint<3>>
    %88 = "FHELinalg.sub_eint"(%87, %86) : (tensor<14x!FHE.eint<3>>, tensor<14x!FHE.eint<3>>) -> tensor<14x!FHE.eint<3>>
    %extracted_739 = tensor.extract %88[%c0] : tensor<14x!FHE.eint<3>>
    %from_elements_740 = tensor.from_elements %extracted_739 : tensor<1x!FHE.eint<3>>
    %inserted_slice_741 = tensor.insert_slice %from_elements_740 into %inserted_slice_594[0] [1] [1] : tensor<1x!FHE.eint<3>> into tensor<30x!FHE.eint<3>>
    %extracted_742 = tensor.extract %88[%c1] : tensor<14x!FHE.eint<3>>
    %from_elements_743 = tensor.from_elements %extracted_742 : tensor<1x!FHE.eint<3>>
    %inserted_slice_744 = tensor.insert_slice %from_elements_743 into %inserted_slice_741[1] [1] [1] : tensor<1x!FHE.eint<3>> into tensor<30x!FHE.eint<3>>
    %extracted_745 = tensor.extract %88[%c2] : tensor<14x!FHE.eint<3>>
    %from_elements_746 = tensor.from_elements %extracted_745 : tensor<1x!FHE.eint<3>>
    %inserted_slice_747 = tensor.insert_slice %from_elements_746 into %inserted_slice_744[2] [1] [1] : tensor<1x!FHE.eint<3>> into tensor<30x!FHE.eint<3>>
    %extracted_748 = tensor.extract %88[%c3] : tensor<14x!FHE.eint<3>>
    %from_elements_749 = tensor.from_elements %extracted_748 : tensor<1x!FHE.eint<3>>
